{
  "version": "1.0",
  "truncation": {
    "direction": "Right",
    "max_length": 320,
    "strategy": "LongestFirst",
    "stride": 0
  },
  "padding": {
    "strategy": "BatchLongest",
    "direction": "Right",
    "pad_to_multiple_of": null,
    "pad_id": 50283,
    "pad_type_id": 0,
    "pad_token": "[PAD]"
  },
  "added_tokens": [
    {
      "id": 0,
      "content": "<|padding|>",
      "single_word": false,
      "lstrip": false,
      "rstrip": false,
      "normalized": false,
      "special": true
    },
    {
      "id": 1,
      "content": "<|endoftext|>",
      "single_word": false,
      "lstrip": false,
      "rstrip": false,
      "normalized": false,
      "special": true
    },
    {
      "id": 2,
      "content": "    ",
      "single_word": false,
      "lstrip": false,
      "rstrip": false,
      "normalized": true,
      "special": false
    },
    {
      "id": 3,
      "content": "   ",
      "single_word": false,
      "lstrip": false,
      "rstrip": false,
      "normalized": true,
      "special": false
    },
    {
      "id": 4,
      "content": "  ",
      "single_word": false,
      "lstrip": false,
      "rstrip": false,
      "normalized": true,
      "special": false
    },
    {
      "id": 5,
      "content": "|||EMAIL_ADDRESS|||",
      "single_word": false,
      "lstrip": false,
      "rstrip": false,
      "normalized": true,
      "special": false
    },
    {
      "id": 6,
      "content": "|||PHONE_NUMBER|||",
      "single_word": false,
      "lstrip": false,
      "rstrip": false,
      "normalized": true,
      "special": false
    },
    {
      "id": 50259,
      "content": "|||IP_ADDRESS|||",
      "single_word": false,
      "lstrip": false,
      "rstrip": false,
      "normalized": true,
      "special": false
    },
    {
      "id": 50260,
      "content": "                        ",
      "single_word": false,
      "lstrip": false,
      "rstrip": false,
      "normalized": true,
      "special": false
    },
    {
      "id": 50261,
      "content": "                       ",
      "single_word": false,
      "lstrip": false,
      "rstrip": false,
      "normalized": true,
      "special": false
    },
    {
      "id": 50262,
      "content": "                      ",
      "single_word": false,
      "lstrip": false,
      "rstrip": false,
      "normalized": true,
      "special": false
    },
    {
      "id": 50263,
      "content": "                     ",
      "single_word": false,
      "lstrip": false,
      "rstrip": false,
      "normalized": true,
      "special": false
    },
    {
      "id": 50264,
      "content": "                    ",
      "single_word": false,
      "lstrip": false,
      "rstrip": false,
      "normalized": true,
      "special": false
    },
    {
      "id": 50265,
      "content": "                   ",
      "single_word": false,
      "lstrip": false,
      "rstrip": false,
      "normalized": true,
      "special": false
    },
    {
      "id": 50266,
      "content": "                  ",
      "single_word": false,
      "lstrip": false,
      "rstrip": false,
      "normalized": true,
      "special": false
    },
    {
      "id": 50267,
      "content": "                 ",
      "single_word": false,
      "lstrip": false,
      "rstrip": false,
      "normalized": true,
      "special": false
    },
    {
      "id": 50268,
      "content": "                ",
      "single_word": false,
      "lstrip": false,
      "rstrip": false,
      "normalized": true,
      "special": false
    },
    {
      "id": 50269,
      "content": "               ",
      "single_word": false,
      "lstrip": false,
      "rstrip": false,
      "normalized": true,
      "special": false
    },
    {
      "id": 50270,
      "content": "              ",
      "single_word": false,
      "lstrip": false,
      "rstrip": false,
      "normalized": true,
      "special": false
    },
    {
      "id": 50271,
      "content": "             ",
      "single_word": false,
      "lstrip": false,
      "rstrip": false,
      "normalized": true,
      "special": false
    },
    {
      "id": 50272,
      "content": "            ",
      "single_word": false,
      "lstrip": false,
      "rstrip": false,
      "normalized": true,
      "special": false
    },
    {
      "id": 50273,
      "content": "           ",
      "single_word": false,
      "lstrip": false,
      "rstrip": false,
      "normalized": true,
      "special": false
    },
    {
      "id": 50274,
      "content": "          ",
      "single_word": false,
      "lstrip": false,
      "rstrip": false,
      "normalized": true,
      "special": false
    },
    {
      "id": 50275,
      "content": "         ",
      "single_word": false,
      "lstrip": false,
      "rstrip": false,
      "normalized": true,
      "special": false
    },
    {
      "id": 50276,
      "content": "        ",
      "single_word": false,
      "lstrip": false,
      "rstrip": false,
      "normalized": true,
      "special": false
    },
    {
      "id": 50277,
      "content": "       ",
      "single_word": false,
      "lstrip": false,
      "rstrip": false,
      "normalized": true,
      "special": false
    },
    {
      "id": 50278,
      "content": "      ",
      "single_word": false,
      "lstrip": false,
      "rstrip": false,
      "normalized": true,
      "special": false
    },
    {
      "id": 50279,
      "content": "     ",
      "single_word": false,
      "lstrip": false,
      "rstrip": false,
      "normalized": true,
      "special": false
    },
    {
      "id": 50280,
      "content": "[UNK]",
      "single_word": false,
      "lstrip": false,
      "rstrip": false,
      "normalized": false,
      "special": true
    },
    {
      "id": 50281,
      "content": "[CLS]",
      "single_word": false,
      "lstrip": false,
      "rstrip": false,
      "normalized": false,
      "special": true
    },
    {
      "id": 50282,
      "content": "[SEP]",
      "single_word": false,
      "lstrip": false,
      "rstrip": false,
      "normalized": false,
      "special": true
    },
    {
      "id": 50283,
      "content": "[PAD]",
      "single_word": false,
      "lstrip": false,
      "rstrip": false,
      "normalized": false,
      "special": true
    },
    {
      "id": 50284,
      "content": "[MASK]",
      "single_word": false,
      "lstrip": true,
      "rstrip": false,
      "normalized": false,
      "special": true
    },
    {
      "id": 50285,
      "content": "[unused0]",
      "single_word": false,
      "lstrip": false,
      "rstrip": false,
      "normalized": true,
      "special": false
    },
    {
      "id": 50286,
      "content": "[unused1]",
      "single_word": false,
      "lstrip": false,
      "rstrip": false,
      "normalized": true,
      "special": false
    },
    {
      "id": 50287,
      "content": "[unused2]",
      "single_word": false,
      "lstrip": false,
      "rstrip": false,
      "normalized": true,
      "special": false
    },
    {
      "id": 50288,
      "content": "[unused3]",
      "single_word": false,
      "lstrip": false,
      "rstrip": false,
      "normalized": true,
      "special": false
    },
    {
      "id": 50289,
      "content": "[unused4]",
      "single_word": false,
      "lstrip": false,
      "rstrip": false,
      "normalized": true,
      "special": false
    },
    {
      "id": 50290,
      "content": "[unused5]",
      "single_word": false,
      "lstrip": false,
      "rstrip": false,
      "normalized": true,
      "special": false
    },
    {
      "id": 50291,
      "content": "[unused6]",
      "single_word": false,
      "lstrip": false,
      "rstrip": false,
      "normalized": true,
      "special": false
    },
    {
      "id": 50292,
      "content": "[unused7]",
      "single_word": false,
      "lstrip": false,
      "rstrip": false,
      "normalized": true,
      "special": false
    },
    {
      "id": 50293,
      "content": "[unused8]",
      "single_word": false,
      "lstrip": false,
      "rstrip": false,
      "normalized": true,
      "special": false
    },
    {
      "id": 50294,
      "content": "[unused9]",
      "single_word": false,
      "lstrip": false,
      "rstrip": false,
      "normalized": true,
      "special": false
    },
    {
      "id": 50295,
      "content": "[unused10]",
      "single_word": false,
      "lstrip": false,
      "rstrip": false,
      "normalized": true,
      "special": false
    },
    {
      "id": 50296,
      "content": "[unused11]",
      "single_word": false,
      "lstrip": false,
      "rstrip": false,
      "normalized": true,
      "special": false
    },
    {
      "id": 50297,
      "content": "[unused12]",
      "single_word": false,
      "lstrip": false,
      "rstrip": false,
      "normalized": true,
      "special": false
    },
    {
      "id": 50298,
      "content": "[unused13]",
      "single_word": false,
      "lstrip": false,
      "rstrip": false,
      "normalized": true,
      "special": false
    },
    {
      "id": 50299,
      "content": "[unused14]",
      "single_word": false,
      "lstrip": false,
      "rstrip": false,
      "normalized": true,
      "special": false
    },
    {
      "id": 50300,
      "content": "[unused15]",
      "single_word": false,
      "lstrip": false,
      "rstrip": false,
      "normalized": true,
      "special": false
    },
    {
      "id": 50301,
      "content": "[unused16]",
      "single_word": false,
      "lstrip": false,
      "rstrip": false,
      "normalized": true,
      "special": false
    },
    {
      "id": 50302,
      "content": "[unused17]",
      "single_word": false,
      "lstrip": false,
      "rstrip": false,
      "normalized": true,
      "special": false
    },
    {
      "id": 50303,
      "content": "[unused18]",
      "single_word": false,
      "lstrip": false,
      "rstrip": false,
      "normalized": true,
      "special": false
    },
    {
      "id": 50304,
      "content": "[unused19]",
      "single_word": false,
      "lstrip": false,
      "rstrip": false,
      "normalized": true,
      "special": false
    },
    {
      "id": 50305,
      "content": "[unused20]",
      "single_word": false,
      "lstrip": false,
      "rstrip": false,
      "normalized": true,
      "special": false
    },
    {
      "id": 50306,
      "content": "[unused21]",
      "single_word": false,
      "lstrip": false,
      "rstrip": false,
      "normalized": true,
      "special": false
    },
    {
      "id": 50307,
      "content": "[unused22]",
      "single_word": false,
      "lstrip": false,
      "rstrip": false,
      "normalized": true,
      "special": false
    },
    {
      "id": 50308,
      "content": "[unused23]",
      "single_word": false,
      "lstrip": false,
      "rstrip": false,
      "normalized": true,
      "special": false
    },
    {
      "id": 50309,
      "content": "[unused24]",
      "single_word": false,
      "lstrip": false,
      "rstrip": false,
      "normalized": true,
      "special": false
    },
    {
      "id": 50310,
      "content": "[unused25]",
      "single_word": false,
      "lstrip": false,
      "rstrip": false,
      "normalized": true,
      "special": false
    },
    {
      "id": 50311,
      "content": "[unused26]",
      "single_word": false,
      "lstrip": false,
      "rstrip": false,
      "normalized": true,
      "special": false
    },
    {
      "id": 50312,
      "content": "[unused27]",
      "single_word": false,
      "lstrip": false,
      "rstrip": false,
      "normalized": true,
      "special": false
    },
    {
      "id": 50313,
      "content": "[unused28]",
      "single_word": false,
      "lstrip": false,
      "rstrip": false,
      "normalized": true,
      "special": false
    },
    {
      "id": 50314,
      "content": "[unused29]",
      "single_word": false,
      "lstrip": false,
      "rstrip": false,
      "normalized": true,
      "special": false
    },
    {
      "id": 50315,
      "content": "[unused30]",
      "single_word": false,
      "lstrip": false,
      "rstrip": false,
      "normalized": true,
      "special": false
    },
    {
      "id": 50316,
      "content": "[unused31]",
      "single_word": false,
      "lstrip": false,
      "rstrip": false,
      "normalized": true,
      "special": false
    },
    {
      "id": 50317,
      "content": "[unused32]",
      "single_word": false,
      "lstrip": false,
      "rstrip": false,
      "normalized": true,
      "special": false
    },
    {
      "id": 50318,
      "content": "[unused33]",
      "single_word": false,
      "lstrip": false,
      "rstrip": false,
      "normalized": true,
      "special": false
    },
    {
      "id": 50319,
      "content": "[unused34]",
      "single_word": false,
      "lstrip": false,
      "rstrip": false,
      "normalized": true,
      "special": false
    },
    {
      "id": 50320,
      "content": "[unused35]",
      "single_word": false,
      "lstrip": false,
      "rstrip": false,
      "normalized": true,
      "special": false
    },
    {
      "id": 50321,
      "content": "[unused36]",
      "single_word": false,
      "lstrip": false,
      "rstrip": false,
      "normalized": true,
      "special": false
    },
    {
      "id": 50322,
      "content": "[unused37]",
      "single_word": false,
      "lstrip": false,
      "rstrip": false,
      "normalized": true,
      "special": false
    },
    {
      "id": 50323,
      "content": "[unused38]",
      "single_word": false,
      "lstrip": false,
      "rstrip": false,
      "normalized": true,
      "special": false
    },
    {
      "id": 50324,
      "content": "[unused39]",
      "single_word": false,
      "lstrip": false,
      "rstrip": false,
      "normalized": true,
      "special": false
    },
    {
      "id": 50325,
      "content": "[unused40]",
      "single_word": false,
      "lstrip": false,
      "rstrip": false,
      "normalized": true,
      "special": false
    },
    {
      "id": 50326,
      "content": "[unused41]",
      "single_word": false,
      "lstrip": false,
      "rstrip": false,
      "normalized": true,
      "special": false
    },
    {
      "id": 50327,
      "content": "[unused42]",
      "single_word": false,
      "lstrip": false,
      "rstrip": false,
      "normalized": true,
      "special": false
    },
    {
      "id": 50328,
      "content": "[unused43]",
      "single_word": false,
      "lstrip": false,
      "rstrip": false,
      "normalized": true,
      "special": false
    },
    {
      "id": 50329,
      "content": "[unused44]",
      "single_word": false,
      "lstrip": false,
      "rstrip": false,
      "normalized": true,
      "special": false
    },
    {
      "id": 50330,
      "content": "[unused45]",
      "single_word": false,
      "lstrip": false,
      "rstrip": false,
      "normalized": true,
      "special": false
    },
    {
      "id": 50331,
      "content": "[unused46]",
      "single_word": false,
      "lstrip": false,
      "rstrip": false,
      "normalized": true,
      "special": false
    },
    {
      "id": 50332,
      "content": "[unused47]",
      "single_word": false,
      "lstrip": false,
      "rstrip": false,
      "normalized": true,
      "special": false
    },
    {
      "id": 50333,
      "content": "[unused48]",
      "single_word": false,
      "lstrip": false,
      "rstrip": false,
      "normalized": true,
      "special": false
    },
    {
      "id": 50334,
      "content": "[unused49]",
      "single_word": false,
      "lstrip": false,
      "rstrip": false,
      "normalized": true,
      "special": false
    },
    {
      "id": 50335,
      "content": "[unused50]",
      "single_word": false,
      "lstrip": false,
      "rstrip": false,
      "normalized": true,
      "special": false
    },
    {
      "id": 50336,
      "content": "[unused51]",
      "single_word": false,
      "lstrip": false,
      "rstrip": false,
      "normalized": true,
      "special": false
    },
    {
      "id": 50337,
      "content": "[unused52]",
      "single_word": false,
      "lstrip": false,
      "rstrip": false,
      "normalized": true,
      "special": false
    },
    {
      "id": 50338,
      "content": "[unused53]",
      "single_word": false,
      "lstrip": false,
      "rstrip": false,
      "normalized": true,
      "special": false
    },
    {
      "id": 50339,
      "content": "[unused54]",
      "single_word": false,
      "lstrip": false,
      "rstrip": false,
      "normalized": true,
      "special": false
    },
    {
      "id": 50340,
      "content": "[unused55]",
      "single_word": false,
      "lstrip": false,
      "rstrip": false,
      "normalized": true,
      "special": false
    },
    {
      "id": 50341,
      "content": "[unused56]",
      "single_word": false,
      "lstrip": false,
      "rstrip": false,
      "normalized": true,
      "special": false
    },
    {
      "id": 50342,
      "content": "[unused57]",
      "single_word": false,
      "lstrip": false,
      "rstrip": false,
      "normalized": true,
      "special": false
    },
    {
      "id": 50343,
      "content": "[unused58]",
      "single_word": false,
      "lstrip": false,
      "rstrip": false,
      "normalized": true,
      "special": false
    },
    {
      "id": 50344,
      "content": "[unused59]",
      "single_word": false,
      "lstrip": false,
      "rstrip": false,
      "normalized": true,
      "special": false
    },
    {
      "id": 50345,
      "content": "[unused60]",
      "single_word": false,
      "lstrip": false,
      "rstrip": false,
      "normalized": true,
      "special": false
    },
    {
      "id": 50346,
      "content": "[unused61]",
      "single_word": false,
      "lstrip": false,
      "rstrip": false,
      "normalized": true,
      "special": false
    },
    {
      "id": 50347,
      "content": "[unused62]",
      "single_word": false,
      "lstrip": false,
      "rstrip": false,
      "normalized": true,
      "special": false
    },
    {
      "id": 50348,
      "content": "[unused63]",
      "single_word": false,
      "lstrip": false,
      "rstrip": false,
      "normalized": true,
      "special": false
    },
    {
      "id": 50349,
      "content": "[unused64]",
      "single_word": false,
      "lstrip": false,
      "rstrip": false,
      "normalized": true,
      "special": false
    },
    {
      "id": 50350,
      "content": "[unused65]",
      "single_word": false,
      "lstrip": false,
      "rstrip": false,
      "normalized": true,
      "special": false
    },
    {
      "id": 50351,
      "content": "[unused66]",
      "single_word": false,
      "lstrip": false,
      "rstrip": false,
      "normalized": true,
      "special": false
    },
    {
      "id": 50352,
      "content": "[unused67]",
      "single_word": false,
      "lstrip": false,
      "rstrip": false,
      "normalized": true,
      "special": false
    },
    {
      "id": 50353,
      "content": "[unused68]",
      "single_word": false,
      "lstrip": false,
      "rstrip": false,
      "normalized": true,
      "special": false
    },
    {
      "id": 50354,
      "content": "[unused69]",
      "single_word": false,
      "lstrip": false,
      "rstrip": false,
      "normalized": true,
      "special": false
    },
    {
      "id": 50355,
      "content": "[unused70]",
      "single_word": false,
      "lstrip": false,
      "rstrip": false,
      "normalized": true,
      "special": false
    },
    {
      "id": 50356,
      "content": "[unused71]",
      "single_word": false,
      "lstrip": false,
      "rstrip": false,
      "normalized": true,
      "special": false
    },
    {
      "id": 50357,
      "content": "[unused72]",
      "single_word": false,
      "lstrip": false,
      "rstrip": false,
      "normalized": true,
      "special": false
    },
    {
      "id": 50358,
      "content": "[unused73]",
      "single_word": false,
      "lstrip": false,
      "rstrip": false,
      "normalized": true,
      "special": false
    },
    {
      "id": 50359,
      "content": "[unused74]",
      "single_word": false,
      "lstrip": false,
      "rstrip": false,
      "normalized": true,
      "special": false
    },
    {
      "id": 50360,
      "content": "[unused75]",
      "single_word": false,
      "lstrip": false,
      "rstrip": false,
      "normalized": true,
      "special": false
    },
    {
      "id": 50361,
      "content": "[unused76]",
      "single_word": false,
      "lstrip": false,
      "rstrip": false,
      "normalized": true,
      "special": false
    },
    {
      "id": 50362,
      "content": "[unused77]",
      "single_word": false,
      "lstrip": false,
      "rstrip": false,
      "normalized": true,
      "special": false
    },
    {
      "id": 50363,
      "content": "[unused78]",
      "single_word": false,
      "lstrip": false,
      "rstrip": false,
      "normalized": true,
      "special": false
    },
    {
      "id": 50364,
      "content": "[unused79]",
      "single_word": false,
      "lstrip": false,
      "rstrip": false,
      "normalized": true,
      "special": false
    },
    {
      "id": 50365,
      "content": "[unused80]",
      "single_word": false,
      "lstrip": false,
      "rstrip": false,
      "normalized": true,
      "special": false
    },
    {
      "id": 50366,
      "content": "[unused81]",
      "single_word": false,
      "lstrip": false,
      "rstrip": false,
      "normalized": true,
      "special": false
    },
    {
      "id": 50367,
      "content": "[unused82]",
      "single_word": false,
      "lstrip": false,
      "rstrip": false,
      "normalized": true,
      "special": false
    }
  ],
  "normalizer": {
    "type": "NFC"
  },
  "pre_tokenizer": {
    "type": "ByteLevel",
    "add_prefix_space": false,
    "trim_offsets": true,
    "use_regex": true
  },
  "post_processor": {
    "type": "TemplateProcessing",
    "single": [
      {
        "SpecialToken": {
          "id": "[CLS]",
          "type_id": 0
        }
      },
      {
        "Sequence": {
          "id": "A",
          "type_id": 0
        }
      },
      {
        "SpecialToken": {
          "id": "[SEP]",
          "type_id": 0
        }
      }
    ],
    "pair": [
      {
        "SpecialToken": {
          "id": "[CLS]",
          "type_id": 0
        }
      },
      {
        "Sequence": {
          "id": "A",
          "type_id": 0
        }
      },
      {
        "SpecialToken": {
          "id": "[SEP]",
          "type_id": 0
        }
      },
      {
        "Sequence": {
          "id": "B",
          "type_id": 0
        }
      },
      {
        "SpecialToken": {
          "id": "[SEP]",
          "type_id": 0
        }
      }
    ],
    "special_tokens": {
      "[CLS]": {
        "id": "[CLS]",
        "ids": [
          50281
        ],
        "tokens": [
          "[CLS]"
        ]
      },
      "[MASK]": {
        "id": "[MASK]",
        "ids": [
          50284
        ],
        "tokens": [
          "[MASK]"
        ]
      },
      "[PAD]": {
        "id": "[PAD]",
        "ids": [
          50283
        ],
        "tokens": [
          "[PAD]"
        ]
      },
      "[SEP]": {
        "id": "[SEP]",
        "ids": [
          50282
        ],
        "tokens": [
          "[SEP]"
        ]
      },
      "[UNK]": {
        "id": "[UNK]",
        "ids": [
          50280
        ],
        "tokens": [
          "[UNK]"
        ]
      }
    }
  },
  "decoder": {
    "type": "ByteLevel",
    "add_prefix_space": false,
    "trim_offsets": true,
    "use_regex": true
  },
  "model": {
    "type": "BPE",
    "dropout": null,
    "unk_token": null,
    "continuing_subword_prefix": null,
    "end_of_word_suffix": null,
    "fuse_unk": false,
    "byte_fallback": false,
    "ignore_merges": false,
    "vocab": {
      "<|padding|>": 0,
      "<|endoftext|>": 1,
      "    ": 2,
      "   ": 3,
      "  ": 4,
      "|||EMAIL_ADDRESS|||": 5,
      "|||PHONE_NUMBER|||": 6,
      "!": 7,
      "\"": 8,
      "#": 9,
      "$": 10,
      "%": 11,
      "&": 12,
      "'": 13,
      "(": 14,
      ")": 15,
      "*": 16,
      "+": 17,
      ",": 18,
      "-": 19,
      ".": 20,
      "/": 21,
      "0": 22,
      "1": 23,
      "2": 24,
      "3": 25,
      "4": 26,
      "5": 27,
      "6": 28,
      "7": 29,
      "8": 30,
      "9": 31,
      ":": 32,
      ";": 33,
      "<": 34,
      "=": 35,
      ">": 36,
      "?": 37,
      "@": 38,
      "A": 39,
      "B": 40,
      "C": 41,
      "D": 42,
      "E": 43,
      "F": 44,
      "G": 45,
      "H": 46,
      "I": 47,
      "J": 48,
      "K": 49,
      "L": 50,
      "M": 51,
      "N": 52,
      "O": 53,
      "P": 54,
      "Q": 55,
      "R": 56,
      "S": 57,
      "T": 58,
      "U": 59,
      "V": 60,
      "W": 61,
      "X": 62,
      "Y": 63,
      "Z": 64,
      "[": 65,
      "\\": 66,
      "]": 67,
      "^": 68,
      "_": 69,
      "`": 70,
      "a": 71,
      "b": 72,
      "c": 73,
      "d": 74,
      "e": 75,
      "f": 76,
      "g": 77,
      "h": 78,
      "i": 79,
      "j": 80,
      "k": 81,
      "l": 82,
      "m": 83,
      "n": 84,
      "o": 85,
      "p": 86,
      "q": 87,
      "r": 88,
      "s": 89,
      "t": 90,
      "u": 91,
      "v": 92,
      "w": 93,
      "x": 94,
      "y": 95,
      "z": 96,
      "{": 97,
      "|": 98,
      "}": 99,
      "~": 100,
      "¡": 101,
      "¢": 102,
      "£": 103,
      "¤": 104,
      "¥": 105,
      "¦": 106,
      "§": 107,
      "¨": 108,
      "©": 109,
      "ª": 110,
      "«": 111,
      "¬": 112,
      "®": 113,
      "¯": 114,
      "°": 115,
      "±": 116,
      "²": 117,
      "³": 118,
      "´": 119,
      "µ": 120,
      "¶": 121,
      "·": 122,
      "¸": 123,
      "¹": 124,
      "º": 125,
      "»": 126,
      "¼": 127,
      "½": 128,
      "¾": 129,
      "¿": 130,
      "À": 131,
      "Á": 132,
      "Â": 133,
      "Ã": 134,
      "Ä": 135,
      "Å": 136,
      "Æ": 137,
      "Ç": 138,
      "È": 139,
      "É": 140,
      "Ê": 141,
      "Ë": 142,
      "Ì": 143,
      "Í": 144,
      "Î": 145,
      "Ï": 146,
      "Ð": 147,
      "Ñ": 148,
      "Ò": 149,
      "Ó": 150,
      "Ô": 151,
      "Õ": 152,
      "Ö": 153,
      "×": 154,
      "Ø": 155,
      "Ù": 156,
      "Ú": 157,
      "Û": 158,
      "Ü": 159,
      "Ý": 160,
      "Þ": 161,
      "ß": 162,
      "à": 163,
      "á": 164,
      "â": 165,
      "ã": 166,
      "ä": 167,
      "å": 168,
      "æ": 169,
      "ç": 170,
      "è": 171,
      "é": 172,
      "ê": 173,
      "ë": 174,
      "ì": 175,
      "í": 176,
      "î": 177,
      "ï": 178,
      "ð": 179,
      "ñ": 180,
      "ò": 181,
      "ó": 182,
      "ô": 183,
      "õ": 184,
      "ö": 185,
      "÷": 186,
      "ø": 187,
      "ù": 188,
      "ú": 189,
      "û": 190,
      "ü": 191,
      "ý": 192,
      "þ": 193,
      "ÿ": 194,
      "Ā": 195,
      "ā": 196,
      "Ă": 197,
      "ă": 198,
      "Ą": 199,
      "ą": 200,
      "Ć": 201,
      "ć": 202,
      "Ĉ": 203,
      "ĉ": 204,
      "Ċ": 205,
      "ċ": 206,
      "Č": 207,
      "č": 208,
      "Ď": 209,
      "ď": 210,
      "Đ": 211,
      "đ": 212,
      "Ē": 213,
      "ē": 214,
      "Ĕ": 215,
      "ĕ": 216,
      "Ė": 217,
      "ė": 218,
      "Ę": 219,
      "ę": 220,
      "Ě": 221,
      "ě": 222,
      "Ĝ": 223,
      "ĝ": 224,
      "Ğ": 225,
      "ğ": 226,
      "Ġ": 227,
      "ġ": 228,
      "Ģ": 229,
      "ģ": 230,
      "Ĥ": 231,
      "ĥ": 232,
      "Ħ": 233,
      "ħ": 234,
      "Ĩ": 235,
      "ĩ": 236,
      "Ī": 237,
      "ī": 238,
      "Ĭ": 239,
      "ĭ": 240,
      "Į": 241,
      "į": 242,
      "İ": 243,
      "ı": 244,
      "Ĳ": 245,
      "ĳ": 246,
      "Ĵ": 247,
      "ĵ": 248,
      "Ķ": 249,
      "ķ": 250,
      "ĸ": 251,
      "Ĺ": 252,
      "ĺ": 253,
      "Ļ": 254,
      "ļ": 255,
      "Ľ": 256,
      "ľ": 257,
      "Ŀ": 258,
      "ŀ": 259,
      "Ł": 260,
      "ł": 261,
      "Ń": 262,
      "Ñģ": 263,
      "ÑĢ": 264,
      "½Ð": 265,
      "Ð½Ð": 266,
      "Ð²": 267,
      "Ð»": 268,
      "ÑĢÐ": 269,
      "ĤÐ": 270,
      "ÑĤÐ": 271,
      "Ðº": 272,
      "Ð¼": 273,
      "Ð¿": 274,
      "Ð´": 275,
      "Ñĥ": 276,
      "Ð»Ð": 277,
      "Ð²Ð": 278,
      "Ñı": 279,
      "Ñĭ": 280,
      "ÐºÐ": 281,
      "¸Ð": 282,
      "ĠÐ¿": 283,
      "Ð´Ð": 284,
      "ÑĮ": 285,
      "Ġt": 286,
      "Ð¼Ð": 287,
      "ĠÑģ": 288,
      "Ð±": 289,
      "Ð³": 290,
      "Ñĩ": 291,
      "Ġa": 292,
      "Ð·": 293,
      "ÑĤÐ¾": 294,
      "he": 295,
      "in": 296,
      "Ð½Ð¾": 297,
      "ÑĢÐ°": 298,
      "Ð¹": 299,
      "Ð½Ð°": 300,
      "ÑĢÐ¾": 301,
      "ĠÐ²": 302,
      "ĠÐ¿Ð": 303,
      "Ð³Ð": 304,
      "Ñħ": 305,
      "ÑĩÐ": 306,
      "ÐºÐ¾": 307,
      "ÑĢÐµ": 308,
      "re": 309,
      "on": 310,
      "µÐ½Ð": 311,
      "Ð¶": 312,
      "Ġthe": 313,
      "Ð¸Ð": 314,
      "ĠÐ¿Ð¾": 315,
      "ÑĤÐµ": 316,
      "ÑģÑ": 317,
      "ÑĤÐ°": 318,
      "er": 319,
      "ÑģÑĤ": 320,
      "µÑ": 321,
      "Ð³Ð¾": 322,
      "Ð²Ð°": 323,
      "Ġs": 324,
      "½Ñĭ": 325,
      "Ð²Ð¾": 326,
      "Ñİ": 327,
      "Ð»ÑĮ": 328,
      "Ð·Ð": 329,
      "Ð±Ð": 330,
      "Ð»Ð¸": 331,
      "ĠÑ": 332,
      "Ġw": 333,
      "Ð½Ðµ": 334,
      "ÐºÐ°": 335,
      "at": 336,
      "Ġo": 337,
      "ÑģÐ": 338,
      "Ð¿Ð": 339,
      "ĠÐ½Ð°": 340,
      "nd": 341,
      "µÑĤ": 342,
      "ÑĤÐ¸": 343,
      "Ð½Ð¸": 344,
      "ĤÑĮ": 345,
      "ÑĤÑĮ": 346,
      "Ġc": 347,
      "it": 348,
      "or": 349,
      "ĠÑģÐ": 350,
      "is": 351,
      "Ð»Ð°": 352,
      "en": 353,
      "ĠÐ´Ð": 354,
      "Ð»Ð¾": 355,
      "es": 356,
      "ÑĪ": 357,
      "Ð¶Ð": 358,
      "Ġf": 359,
      "ĠÐ¼Ð": 360,
      "Ð»Ðµ": 361,
      "Ġb": 362,
      "ou": 363,
      "ÑĨ": 364,
      "ing": 365,
      "Ġp": 366,
      "Ð·Ð°": 367,
      "ÑĢÐ¸": 368,
      "ed": 369,
      "an": 370,
      "al": 371,
      "ÑģÑı": 372,
      "ar": 373,
      "Ġto": 374,
      "ĠÑĥ": 375,
      "ĠÐ½Ðµ": 376,
      "µÐ": 377,
      "Ġm": 378,
      "Ġof": 379,
      "¸Ðµ": 380,
      "âĢ": 381,
      "Ġand": 382,
      "Ġin": 383,
      "Ð´Ð°": 384,
      "Ñī": 385,
      "Ð²Ðµ": 386,
      "ĠÐºÐ¾": 387,
      "ÑĪÐ": 388,
      "Ġd": 389,
      "ÑĩÐµ": 390,
      "ic": 391,
      "ÑĢÑĥ": 392,
      "Ð»Ñı": 393,
      "¾Ð±": 394,
      "Ġh": 395,
      "as": 396,
      "le": 397,
      "Ð±Ð¾": 398,
      "ĠÐ·Ð°": 399,
      "ĠÐ¿ÑĢÐ¾": 400,
      "Ð¼Ð¸": 401,
      "om": 402,
      "ĠÑĢÐ°": 403,
      "ÐµÑĤ": 404,
      "ÑħÐ": 405,
      "ÐºÐ¸": 406,
      "Ġth": 407,
      "ion": 408,
      "Ð²Ð¸": 409,
      "µÐ½": 410,
      "¾Ñ": 411,
      "¾Ñģ": 412,
      "ÑīÐ": 413,
      "ĠÐº": 414,
      "Ð´Ðµ": 415,
      "ĠÐ±": 416,
      "¸Ñı": 417,
      "ÐĴ": 418,
      "ÐŁ": 419,
      "ĠÑį": 420,
      "Ð¾Ð±": 421,
      "ĦÐ": 422,
      "¾ÑĤ": 423,
      "ll": 424,
      "ĠÐ´": 425,
      "ÑĩÐ°": 426,
      "ĠÐ¸Ð": 427,
      "ÑĨÐ": 428,
      "ent": 429,
      "Ð¿Ð¾": 430,
      "Ð¡": 431,
      "Ð´Ð¸": 432,
      "Ġl": 433,
      "Ð¼Ð¾": 434,
      "st": 435,
      "ĠÐºÐ°": 436,
      "ve": 437,
      "Ġn": 438,
      "ro": 439,
      "Ð¼Ð°": 440,
      "Ġre": 441,
      "Ġe": 442,
      "ĠI": 443,
      "ÑĢÑĭ": 444,
      "ÑħÐ¾": 445,
      "ÑĩÐ¸": 446,
      "Ġg": 447,
      "ĠÑĩ": 448,
      "ĠâĢ": 449,
      "ĠÑģÐ¾": 450,
      "ĠÐ²Ð¾": 451,
      "Ð½Ñĭ": 452,
      "ĠÐ´Ð¾": 453,
      "ĠS": 454,
      "Ð¾ÑĤ": 455,
      "ly": 456,
      "ĠÐ²Ñĭ": 457,
      "ĠÐ¼Ð¾": 458,
      "ĠÑĤÐ¾": 459,
      "ÑĨÐ¸Ð": 460,
      "µÐ½Ð¸Ñı": 461,
      "Ð´Ð¾": 462,
      "ĠÐ¾Ð±": 463,
      "Ðļ": 464,
      "et": 465,
      "ĠT": 466,
      "½Ð¾": 467,
      "Ġ1": 468,
      "ac": 469,
      "ÑģÐµ": 470,
      "ÐĿ": 471,
      "½Ñĥ": 472,
      "Ð»ÑĮÐ½Ð¾": 473,
      "Ð¼Ñĥ": 474,
      "ut": 475,
      "ot": 476,
      "Ðŀ": 477,
      "id": 478,
      "ĠÐ¿ÑĢÐ¸": 479,
      "¸Ñģ": 480,
      "ĠÑĩÑĤÐ¾": 481,
      "Ð¶Ðµ": 482,
      "Ġbe": 483,
      "ºÐ": 484,
      "ĠC": 485,
      "ay": 486,
      "ĠÐĴ": 487,
      "ĠA": 488,
      "Ġ(": 489,
      "Ð¼Ðµ": 490,
      "Ð»Ñĥ": 491,
      "ÑģÑĤÐ¸": 492,
      "Ġy": 493,
      "ÑĢÐ¸Ð": 494,
      "Ġon": 495,
      "ĠÐ¾ÑĤ": 496,
      "ÑģÐºÐ¾": 497,
      "Ġis": 498,
      "ĠÐŁ": 499,
      "µÐ½Ð¸Ðµ": 500,
      "Ð´Ñĥ": 501,
      "Ġfor": 502,
      "Ġ2": 503,
      "ĠÑĢÐµ": 504,
      "ow": 505,
      "am": 506,
      "ÐĿÐ": 507,
      "ÑģÑĤÑĮ": 508,
      "ÑİÑ": 509,
      "ĠÐ³Ð¾": 510,
      "ĠÑĤ": 511,
      "ÑİÑĤ": 512,
      "ad": 513,
      "Ð±Ðµ": 514,
      "Ð²Ñĭ": 515,
      "ĠÐ¸Ð·": 516,
      "ĠÐ¿ÑĢÐµ": 517,
      "se": 518,
      "ur": 519,
      "½ÑĭÑħ": 520,
      "im": 521,
      "ig": 522,
      "Ð¾Ñģ": 523,
      "ct": 524,
      "ÐºÑĥ": 525,
      "ÑģÐ¾": 526,
      "Ð¿Ð°": 527,
      "ĠÐ¡": 528,
      "Ġthat": 529,
      "ver": 530,
      "Ðľ": 531,
      "ĠÑĤÐ°": 532,
      "Ð½Ð¸Ð": 533,
      "ĠM": 534,
      "ĠÑįÑĤÐ¾": 535,
      "³Ð": 536,
      "ÐĲ": 537,
      "¶Ð": 538,
      "il": 539,
      "ol": 540,
      "½ÑĭÐ": 541,
      "½ÑĭÐµ": 542,
      "ÑģÑĮ": 543,
      "Ð¼Ñĭ": 544,
      "Ġu": 545,
      "ÑģÑĤÐ°": 546,
      "Ġyou": 547,
      "ĠÑĤÐµ": 548,
      "ĠÐ±Ñĭ": 549,
      "ĠÐ´Ðµ": 550,
      "ĠÐ¿Ðµ": 551,
      "ation": 552,
      "ĠÐ³": 553,
      "Ġst": 554,
      "Ðł": 555,
      "ÐĶ": 556,
      "ÑĦÐ": 557,
      "Ð»Ñİ": 558,
      "ith": 559,
      "Ðĺ": 560,
      "ir": 561,
      "ĤÑĭ": 562,
      "ÑĤÑĭ": 563,
      "ÐµÑĤÑģÑı": 564,
      "Ð¢": 565,
      "µÐ½Ð½Ð¾": 566,
      "Ġhe": 567,
      "ÑģÐ°": 568,
      "ĠÐ½Ð¾": 569,
      "ÑĪÐµ": 570,
      "ĠÐļ": 571,
      "ĠP": 572,
      "ĠB": 573,
      "Ġit": 574,
      "Ð¸Ñģ": 575,
      "Ð¶Ð½Ð¾": 576,
      "ce": 577,
      "ÑģÑĤÐ¾": 578,
      "ch": 579,
      "Ð»ÑĮÐ½Ñĭ": 580,
      "Â»": 581,
      "Ġwith": 582,
      "¸Ñħ": 583,
      "Â«": 584,
      "ÑģÐ¸": 585,
      "Ð½Ð¸Ñı": 586,
      "ĠÑĢÐ°Ð·": 587,
      "ĠÑģÐµ": 588,
      "ĠÐ¼Ðµ": 589,
      "ĤÑĥ": 590,
      "ÑĤÑĥ": 591,
      "ĠÐ´Ð»Ñı": 592,
      "ĠÐ¼Ð°": 593,
      "¸Ð¹": 594,
      "Ð¶Ð¸": 595,
      "ter": 596,
      "Ð³Ð°": 597,
      "ĠÐ±Ð¾": 598,
      "ÑīÐµ": 599,
      "·Ð": 600,
      "00": 601,
      "Ġwe": 602,
      "½ÑĭÐ¹": 603,
      "ĠÐºÐ¾ÑĤÐ¾": 604,
      "Ð¿Ðµ": 605,
      "ĠÂ«": 606,
      "Ð½Ð¾Ð¹": 607,
      "Ð·Ð¾": 608,
      "Ġwh": 609,
      "ĠÐĿÐ": 610,
      "½Ñı": 611,
      "ill": 612,
      "ÑģÑĤÐ²Ð": 613,
      "ÑĢÑı": 614,
      "Ġan": 615,
      "Ð½Ð¸Ðµ": 616,
      "ĠÐŀ": 617,
      "ÑĢÐ¼": 618,
      "Ġas": 619,
      "ĠÑĦÐ": 620,
      "ĠÐ²ÑģÐµ": 621,
      "ĠÐľ": 622,
      "Ð½Ð¾Ð³Ð¾": 623,
      "ĠW": 624,
      "ÑĨÐ¸Ð¸": 625,
      "ĠH": 626,
      "ĠÑı": 627,
      "Ġ-": 628,
      "âĢĻ": 629,
      "ĠD": 630,
      "ke": 631,
      "Ð±Ð°": 632,
      "ĠâĢĵ": 633,
      "ĠÐ¸Ñģ": 634,
      "ld": 635,
      "Ð²Ð°ÑĤÑĮ": 636,
      "ers": 637,
      "Ð²Ñĥ": 638,
      "ĠÑģÐ°": 639,
      "if": 640,
      "¸Ð»Ð¸": 641,
      "Ġha": 642,
      "ĠÐ·": 643,
      "ĠR": 644,
      "ag": 645,
      "ĠF": 646,
      "´Ð": 647,
      "ĠÐ´Ð°": 648,
      "Ð»Ð¸Ð": 649,
      "her": 650,
      "Ðĳ": 651,
      "Ġpro": 652,
      "Ġat": 653,
      "oo": 654,
      "ĠÐ¿Ð¾Ð´": 655,
      "ĠÐł": 656,
      "ĠÑĩÐµ": 657,
      "ÑģÑĤÐ²Ð¾": 658,
      "Ġcon": 659,
      "°Ðº": 660,
      "em": 661,
      "Ġare": 662,
      "ĠÐºÐ°Ðº": 663,
      "ĠÐŁÐ": 664,
      "ri": 665,
      "ĠÐĶ": 666,
      "pp": 667,
      "ĠÐĲ": 668,
      "Ðķ": 669,
      "Ð³Ð¸": 670,
      "ul": 671,
      "ate": 672,
      "ĠÑģÑĤÐ°": 673,
      "Ġse": 674,
      "Ġwas": 675,
      "¸Ð¸": 676,
      "ÑĩÐµÑģ": 677,
      "ĠThe": 678,
      "ore": 679,
      "Ġ\"": 680,
      "ĠÑģÐ²Ð¾": 681,
      "Ġr": 682,
      "ĠâĢĶ": 683,
      "us": 684,
      "Ð²Ð»Ñı": 685,
      "¾ÑĤÐ": 686,
      "Ð¿Ð¸": 687,
      "Ġcom": 688,
      "ĠÐ±Ðµ": 689,
      "Ġor": 690,
      "ÑģÑģ": 691,
      "ÑĤÐµÐ»ÑĮÐ½Ð¾": 692,
      "Ð¾ÑĤÐ": 693,
      "ĠÐ¢": 694,
      "th": 695,
      "ĠL": 696,
      "ĠÐ²Ðµ": 697,
      "Ð¼ÐµÐ½": 698,
      "igh": 699,
      "ĠÑĨ": 700,
      "est": 701,
      "ĠÐ»Ð¸": 702,
      "ĠÐ¾Ñģ": 703,
      "ĠÐ¾ÑĤÐ": 704,
      "Ðĵ": 705,
      "ĠÐĺ": 706,
      "ess": 707,
      "Ð¸Ð»Ð¸": 708,
      "ÑĤÐ¾Ð²": 709,
      "ab": 710,
      "ĠN": 711,
      "Ð½Ñĥ": 712,
      "ĠG": 713,
      "ist": 714,
      "ew": 715,
      "Ð±Ð¸": 716,
      "el": 717,
      "ĠÐ²Ð°": 718,
      "ĠÐ¼": 719,
      "ĠÐ¿ÑĢÐµÐ´": 720,
      "ĠÑģÑ": 721,
      "un": 722,
      "ÑģÑĤÐ²Ð°": 723,
      "rom": 724,
      "..": 725,
      "ÑĢÐ¼Ð": 726,
      "ÑĨÐµ": 727,
      "ĠÐļÐ": 728,
      "ain": 729,
      "ĠÐ±Ñĥ": 730,
      "op": 731,
      "ĠÐ¿Ð°": 732,
      "µÐ³Ð¾": 733,
      "ĠÐ¸Ð»Ð¸": 734,
      "Ð½Ð½Ð¾": 735,
      "ĤÑĢÐ°": 736,
      "um": 737,
      "ÑĢÐ¾Ð²": 738,
      "ĠÐ¿ÐµÑĢÐµ": 739,
      "µÐ½Ð¸": 740,
      "'s": 741,
      "and": 742,
      "Ð£": 743,
      "ĠE": 744,
      "ÐµÐ³Ð¾": 745,
      "Ð²Ð»Ð": 746,
      "Ð´Ñĭ": 747,
      "ÑĤÐºÐ": 748,
      "res": 749,
      "ÐºÐµ": 750,
      "Ð¿ÑĢÐ¾": 751,
      "Ð±Ñĭ": 752,
      "ĠÐºÐ¾ÑĤÐ¾ÑĢÑĭ": 753,
      "ÑĤÐµÐ»ÑĮ": 754,
      "³Ð°": 755,
      "Ġde": 756,
      "ÑĤÑĮÑģÑı": 757,
      "µÐ½ÑĮ": 758,
      "Ġex": 759,
      "½ÑĭÐ¼": 760,
      "ĠÐ²Ð¾Ð·": 761,
      "Ġv": 762,
      "±Ð": 763,
      "ity": 764,
      "µÐ¼": 765,
      "ant": 766,
      "Ð¶Ð°": 767,
      "ĠÑĪ": 768,
      "ÑħÐ¾Ð´Ð¸": 769,
      "ĠÑģÑĥ": 770,
      "Ġhave": 771,
      "ĠÐ¸Ð½": 772,
      "ÑģÐ»Ðµ": 773,
      "ive": 774,
      "pe": 775,
      "qu": 776,
      "ort": 777,
      "¸Ð¼": 778,
      "Ð½Ð°Ñı": 779,
      "Ð»ÑĮÐºÐ¾": 780,
      "ÑģÐ»Ð¸": 781,
      "Ġnot": 782,
      "Ġthis": 783,
      "Ġby": 784,
      "ÐĹ": 785,
      "ĠÐ¶Ðµ": 786,
      "art": 787,
      "ĠÑĨÐ": 788,
      "ÑģÑĥ": 789,
      "ment": 790,
      "Ġfrom": 791,
      "os": 792,
      "ÐºÐ¸Ñħ": 793,
      "ĠÐ¿ÑĢÐ°": 794,
      "ÑĩÐ½Ð¾": 795,
      "ust": 796,
      "oc": 797,
      "Ð»ÐµÐ": 798,
      "nt": 799,
      "ĤÑģÑı": 800,
      "ÑĤÑģÑı": 801,
      "01": 802,
      "Ð¸Ð·": 803,
      "ĠÐĳ": 804,
      "Ġsh": 805,
      "Ġ3": 806,
      "Ð°Ðº": 807,
      "Ð¸Ð¹": 808,
      "ĠÐ²Ð": 809,
      "¾Ð½Ð°": 810,
      "Ġsu": 811,
      "ight": 812,
      "µÑī": 813,
      "ÐĽ": 814,
      "ĠO": 815,
      "ĠÑĢÐ°Ð±Ð¾": 816,
      "Ð¸Ðµ": 817,
      "ĠÐ¡Ð": 818,
      "ies": 819,
      "ĠÐ¿ÑĢÐ¸Ð": 820,
      "Ð»Ñĭ": 821,
      "¾Ð´": 822,
      "ĠÐĴÐ": 823,
      "Ð·Ñĭ": 824,
      "all": 825,
      "Ð·Ð¸": 826,
      "µÐµ": 827,
      "ĠÐ½Ð¸": 828,
      "ÑħÐ°": 829,
      "ÐºÐ°Ð·Ð°": 830,
      "ÑĢÐ¾Ð²Ð°": 831,
      "ard": 832,
      "Ġal": 833,
      "ĠJ": 834,
      "Ð´ÐµÑĤ": 835,
      "ould": 836,
      "Ð³Ð´Ð°": 837,
      "Ġch": 838,
      "ÐºÐ¸Ðµ": 839,
      "ĠÐľÐ": 840,
      "ÐŃ": 841,
      "ĠÐºÐ¾Ð¼": 842,
      "Ð½Ð¾Ð²": 843,
      "ÑģÐºÐ¾Ð¹": 844,
      "Ð¿Ñĥ": 845,
      "ĠÐµÐ³Ð¾": 846,
      "ÐºÐ¾Ð²": 847,
      "out": 848,
      "ĠÐ²Ð¸": 849,
      "our": 850,
      "ĠÑĢÐ¾": 851,
      "ĠÑģÑĤÐ¾": 852,
      "ud": 853,
      "¶Ðµ": 854,
      "ÑĦ": 855,
      "µÑīÐ": 856,
      "ear": 857,
      "Ġle": 858,
      "ĠÐ»Ñİ": 859,
      "Ð¤": 860,
      "Ð·Ñĥ": 861,
      "Ñĳ": 862,
      "µÐº": 863,
      "ÑģÑĤÐµ": 864,
      "ÑİÑĤÑģÑı": 865,
      "ĠÐĵ": 866,
      "ĠÑĩÐ°": 867,
      "ra": 868,
      "ome": 869,
      "ĠÐºÐ¾Ð": 870,
      "¾ÑģÑĤÐ°": 871,
      "ast": 872,
      "µÐ¹": 873,
      "ÑĢÐµÐ´": 874,
      "red": 875,
      "Ġab": 876,
      "ost": 877,
      "gh": 878,
      "Ġwill": 879,
      "ĠÑħÐ¾": 880,
      "ĠÑĢÑĥ": 881,
      "Ð³Ñĥ": 882,
      "ÑĪÐ°": 883,
      "ÑīÐ¸": 884,
      "iv": 885,
      "ĠÐ²ÑĢÐµ": 886,
      "ÐºÐ¾Ð¹": 887,
      "ÑĪÐ¸": 888,
      "Ð½Ð¸Ð¼Ð°": 889,
      "ÐµÐ¼": 890,
      "·Ð°": 891,
      "ack": 892,
      "Ð¶ÐµÑĤ": 893,
      "Ġpl": 894,
      "ÑĨÐ°": 895,
      "Ð¿ÑĢÐ°": 896,
      "Ġcan": 897,
      "ally": 898,
      "od": 899,
      "Ð¸Ñħ": 900,
      "ĠÐºÐ¾Ð½": 901,
      "ĠÐ´ÑĢÑĥ": 902,
      "te": 903,
      "Ð²ÐµÑĤ": 904,
      "Ġj": 905,
      "ÐºÐ¸Ð¹": 906,
      "ĠÐ»Ðµ": 907,
      "ÑĨÐ¸": 908,
      "ĠÐķ": 909,
      "The": 910,
      "Ġwor": 911,
      "ÑģÐºÐ¾Ð³Ð¾": 912,
      "Ġdo": 913,
      "Ð»ÐµÐ¹": 914,
      "ÑīÐ°": 915,
      "ÑĨÐ¸Ñı": 916,
      "µÐ½Ð¸Ð¸": 917,
      "Ð§": 918,
      "ge": 919,
      "rou": 920,
      "ÑĢÐ°Ð": 921,
      "ak": 922,
      "Ð¼ÐµÐ½Ð": 923,
      "Ð²Ð½Ð¾": 924,
      "Ð²ÐµÑĢ": 925,
      "ĠÐŁÐ¾": 926,
      "Ð¼Ñı": 927,
      "Ð²Ð¾Ð¹": 928,
      "Ġall": 929,
      "Ð¾Ð´": 930,
      ").": 931,
      "¾ÑĢÐ": 932,
      "ÑģÑĤÑĥ": 933,
      "ĠÑĢÐ°Ñģ": 934,
      "ĠÐ¾Ð±ÑĢÐ°": 935,
      "Ð¸Ð¸": 936,
      "ĠÐ¢Ð": 937,
      "ĠÐ¼Ð¸": 938,
      "¸Ð¼Ð": 939,
      "Ð³ÑĢÐ°": 940,
      "ÑĢÐ¾Ð": 941,
      "Ð²Ð°Ð½Ð¸Ñı": 942,
      "Ġyour": 943,
      "Ġk": 944,
      "Ġbut": 945,
      "¾Ð¿": 946,
      "Ð½Ð¸Ð¸": 947,
      "ine": 948,
      "Ġhas": 949,
      "ĠÑĦÐ¾": 950,
      "Ð½ÐºÐ": 951,
      "Ġ201": 952,
      "Ð½Ð´Ð": 953,
      "ide": 954,
      "ie": 955,
      "ĠÐ£": 956,
      "ÑĢÐ¼Ð°": 957,
      "Ð¸Ð½": 958,
      "ĠU": 959,
      "ĠÐ±Ð¾Ð»ÑĮ": 960,
      "ĠÐĿÐ°": 961,
      "ĠÐºÑĥ": 962,
      "Ð¾Ð¿": 963,
      "ĠÐ·Ð½Ð°": 964,
      "Ð¸Ð¼Ð": 965,
      "µÑĨ": 966,
      "ĠÐ¼Ð¾Ð¶Ð½Ð¾": 967,
      "½ÑĥÑİ": 968,
      "Ġme": 969,
      "ÑģÑĤÐ²Ñĥ": 970,
      "ĠÐĶÐ": 971,
      "ff": 972,
      "pt": 973,
      "ice": 974,
      "ure": 975,
      "³Ð¾": 976,
      "Ġwhe": 977,
      "ÑģÐºÐ°": 978,
      "Ġne": 979,
      "¸Ð½": 980,
      "Ð½Ðº": 981,
      "ĠÑģÐ»Ñĥ": 982,
      "µÑĪ": 983,
      "ĠÐ¿Ð¾Ð»Ñĥ": 984,
      "ĠÐ¾Ð¿": 985,
      "ich": 986,
      "ĠÑĤÐ°Ðº": 987,
      "ÑģÑĤÐ²ÐµÐ½Ð": 988,
      "ĠÐŃ": 989,
      "per": 990,
      "Ġ5": 991,
      "Ġtr": 992,
      "ĠÐ±Ð°": 993,
      "Ñį": 994,
      "ÑĢÐºÐ": 995,
      "Ġhis": 996,
      "Ġ4": 997,
      "Ġout": 998,
      "Ð¾ÑĢÐ": 999,
      "ÐŁÐ": 1000,
      "ther": 1001,
      "ÐºÐ¾Ð¼": 1002,
      "ĠÐ¾Ð´": 1003,
      "one": 1004,
      "ĠÐ´Ð¾Ð»Ð": 1005,
      "ial": 1006,
      "Ð²Ñı": 1007,
      "Ð»ÑģÑı": 1008,
      "ĠÑĦ": 1009,
      "ÐĹÐ": 1010,
      "ĠÐ¸ÑģÐ¿Ð¾": 1011,
      "Ð²ÑĤÐ¾": 1012,
      "°Ð": 1013,
      "Ð¿ÑĢÐ¸": 1014,
      "act": 1015,
      "Ð»ÐµÐº": 1016,
      "ĠÐ¿Ð¾ÑģÐ»Ðµ": 1017,
      "Ġup": 1018,
      "ook": 1019,
      "ÑĢÑĮ": 1020,
      "ÑĦÐ¾": 1021,
      "ĠÐ¸Ð¼Ð": 1022,
      "Ġthey": 1023,
      "ÑģÑĤÐ²ÐµÐ½Ð½Ð¾": 1024,
      "og": 1025,
      "ÐºÐ¶Ðµ": 1026,
      "Ġsa": 1027,
      "ÑĬ": 1028,
      "ĠÑĤÐ¾Ð»ÑĮÐºÐ¾": 1029,
      "ions": 1030,
      "ĠÑģÐ¸": 1031,
      "Ð»ÐµÐµ": 1032,
      "pl": 1033,
      "Ġad": 1034,
      "ame": 1035,
      "Ġ19": 1036,
      "ÑĢÐ¾Ð¹": 1037,
      "ĠÐĳÐ": 1038,
      "are": 1039,
      "ĠÑĥÑģ": 1040,
      "ĠÐłÐ": 1041,
      "ind": 1042,
      "ÑĤÐ¾Ð¼": 1043,
      "Ð·Ð½Ð°": 1044,
      "ect": 1045,
      "ĠÐ¸Ñħ": 1046,
      "ĠÐĽ": 1047,
      "¾ÑģÑĤÐ¸": 1048,
      "ĠÑģÑĤÑĢÐ°": 1049,
      "Ð½Ð½Ð": 1050,
      "age": 1051,
      "Ġus": 1052,
      "Ð´Ñı": 1053,
      "ong": 1054,
      "ĠÐ¼Ñĭ": 1055,
      "âĢĿ": 1056,
      "ÑĤÐµÐ»ÑĮÐ½Ñĭ": 1057,
      "Ð²Ð¸Ð": 1058,
      "Ġtheir": 1059,
      "Ġmore": 1060,
      "Ġso": 1061,
      "ĠK": 1062,
      "ĠÐ¼Ð¾Ð¶ÐµÑĤ": 1063,
      "ĠÐ¶Ð¸": 1064,
      "½ÑĭÐ¼Ð¸": 1065,
      "ÑĢÐ¾Ð¼": 1066,
      "Ġmy": 1067,
      "ip": 1068,
      "ĠÑģÐ²Ð¾Ð": 1069,
      "ĠÐ¾ÑĢÐ": 1070,
      "ber": 1071,
      "ÑĤÑĢÐ°": 1072,
      "ood": 1073,
      "ake": 1074,
      "ĠÐ¿ÐµÑĢ": 1075,
      "Ġone": 1076,
      "ated": 1077,
      "ÑĢÐ¶Ð": 1078,
      "Ġte": 1079,
      "ĠÑģÑĤ": 1080,
      "±Ð¾": 1081,
      "µÐ½Ð¸Ð¹": 1082,
      "ÑģÑĤÑĢÐ°": 1083,
      "ans": 1084,
      "ÑİÑī": 1085,
      "Ġwho": 1086,
      "very": 1087,
      "Ð¼ÐµÑĢ": 1088,
      "ÐºÑĢÐ°": 1089,
      "ÑģÑĭ": 1090,
      "ime": 1091,
      "ous": 1092,
      "ĠÐ¶": 1093,
      "ÑĦÐ¸": 1094,
      "ĠÐ¿Ð»Ð°": 1095,
      "Ð½Ð¾Ð": 1096,
      "Ð½Ð¸ÐºÐ°": 1097,
      "ike": 1098,
      "°Ð½": 1099,
      "ĠÑĤÑĢÐµ": 1100,
      "Ġabout": 1101,
      "Ð½Ð´": 1102,
      "Ð½Ð¾Ð¼": 1103,
      "Ð»ÐµÑĤ": 1104,
      "Ġcomp": 1105,
      "),": 1106,
      "ĠÐ¾ÑĢÐ³Ð°": 1107,
      "ĠIn": 1108,
      "Ð½ÐµÑĤ": 1109,
      "ĠÑĪÐ": 1110,
      "ÐĹÐ°": 1111,
      "Ġen": 1112,
      "Ð»ÑĮÐ·Ð¾": 1113,
      "iz": 1114,
      "Ġcl": 1115,
      "able": 1116,
      "ĠSt": 1117,
      "Ð²ÑĭÐ": 1118,
      "Ð²Ð°Ð½Ð¸Ðµ": 1119,
      "Ð²ÑĭÐµ": 1120,
      "ĠÑģÐ¿Ð¾": 1121,
      "Ġgo": 1122,
      "ia": 1123,
      "Ð¼Ð¾ÑĤ": 1124,
      "ÑĢÑ": 1125,
      "cc": 1126,
      "ite": 1127,
      "Ð¯": 1128,
      "Ð²ÑĭÑħ": 1129,
      "Ð½Ð¾Ðµ": 1130,
      "ĠÐ±ÑĥÐ´ÐµÑĤ": 1131,
      "ÑĢÑĤ": 1132,
      "ĠV": 1133,
      "ÑĨÐ¸Ð¾": 1134,
      "ÐºÐ¾Ð": 1135,
      "orm": 1136,
      "ĠTh": 1137,
      "ÑİÑīÐ": 1138,
      "ÑģÐ¿Ð¾": 1139,
      "Ð¹ÑĤÐµ": 1140,
      "ap": 1141,
      "ub": 1142,
      "Ð½Ð¸Ð¹": 1143,
      "µÑĢ": 1144,
      "Ð»Ð¾Ð²Ðµ": 1145,
      "ĠÐºÐ¾ÑĤÐ¾ÑĢÑĭÐ": 1146,
      "ĠÐºÐ¾ÑĤÐ¾ÑĢÑĭÐµ": 1147,
      "ĠÑĤÐ°ÐºÐ¶Ðµ": 1148,
      "ĠÐ²ÑĢÐµÐ¼Ñı": 1149,
      "Ð½ÐµÐ¹": 1150,
      "Ġcont": 1151,
      "ÑģÑĤÐ": 1152,
      "ÑĩÐµÐ½Ð¸Ðµ": 1153,
      "Ð½Ð¾ÑģÑĤÐ¸": 1154,
      "ĠÐ¿Ð¾Ð¼Ð¾": 1155,
      "ue": 1156,
      "so": 1157,
      "ry": 1158,
      "ace": 1159,
      "ĠÑĨÐµ": 1160,
      "Ð»Ð¾Ð¶Ð": 1161,
      "ks": 1162,
      "Ð»Ð¸ÑģÑĮ": 1163,
      "ĠÐ°Ðº": 1164,
      "Ġ200": 1165,
      "ail": 1166,
      "Ġim": 1167,
      "ĠÐ½Ñĥ": 1168,
      "ĠÐ¿Ñĥ": 1169,
      "ary": 1170,
      "ÐºÐ»Ñİ": 1171,
      "ĠÑģÐ»Ðµ": 1172,
      "ĠÐ¼Ñĥ": 1173,
      "Ð¥": 1174,
      "cl": 1175,
      "¾ÑģÑĤÐ¾": 1176,
      "ĠÑĩÑĤÐ¾Ð±Ñĭ": 1177,
      "ÑĢÐ°Ð½": 1178,
      "ĠÐĿÐ¾": 1179,
      "ĠÐ¤": 1180,
      "ire": 1181,
      "µÑģÐ»Ð¸": 1182,
      "Ġoff": 1183,
      "ÐµÑģÐ»Ð¸": 1184,
      "°Ð»ÑĮÐ½Ð¾": 1185,
      "Ġman": 1186,
      "Ð±Ñĥ": 1187,
      "Ġwhich": 1188,
      "Ð»Ð¾ÑģÑĮ": 1189,
      "ĠÐ¸Ð½ÑĤÐµ": 1190,
      "°Ð²ÑĤÐ¾": 1191,
      "µÐ½Ð¸Ñİ": 1192,
      "ru": 1193,
      "ĠÐ§": 1194,
      "Ð²Ð¾Ð´Ð¸": 1195,
      "Ð°Ð²ÑĤÐ¾": 1196,
      "½ÑĮ": 1197,
      "Ð²Ð°ÐµÑĤ": 1198,
      "to": 1199,
      "ĠÐµÑģÐ»Ð¸": 1200,
      "Ð½Ð¾ÑģÑĤÑĮ": 1201,
      "ib": 1202,
      "Ġyear": 1203,
      "Ð¶Ð´Ð": 1204,
      "ance": 1205,
      "ÑĩÐµÐ½ÑĮ": 1206,
      "Ð½ÐµÐ": 1207,
      "au": 1208,
      "ĠÐ¸Ð³": 1209,
      "ĠY": 1210,
      "Ð¿Ð¾Ð»": 1211,
      "Ð»ÐµÐ½Ð¸Ñı": 1212,
      "Ġres": 1213,
      "ĠÐ°Ð²ÑĤÐ¾": 1214,
      "ays": 1215,
      "ĠÐļÐ¾": 1216,
      "ass": 1217,
      "ven": 1218,
      "ase": 1219,
      "ĠÐ½ÐµÐ¾Ð±": 1220,
      "ach": 1221,
      "Ġhad": 1222,
      "Â».": 1223,
      "ÐºÐ¸Ð¼": 1224,
      "Ġper": 1225,
      "ĠCh": 1226,
      "ep": 1227,
      "ĠÑĩÐµÐ»Ð¾Ð²Ðµ": 1228,
      "ign": 1229,
      "Ð´ÑĮ": 1230,
      "ĠâĢľ": 1231,
      "Ð»Ð°ÑģÑĮ": 1232,
      "...": 1233,
      "ĠÑģÐ»Ð¾": 1234,
      "ÑĤÐµÐ»Ñı": 1235,
      "¾Ð½Ð¸": 1236,
      "ÑĤÐ¸Ñı": 1237,
      "du": 1238,
      "ÑĦÐµ": 1239,
      "Ġother": 1240,
      "Ġ6": 1241,
      "ĠÑįÑĤÐ¾Ð¼": 1242,
      "Ð»Ð¸ÑĩÐ": 1243,
      "ĠÐ¿Ð¸": 1244,
      "ĠÑħ": 1245,
      "ÐµÐº": 1246,
      "ond": 1247,
      "ick": 1248,
      "ord": 1249,
      "ations": 1250,
      "Ġapp": 1251,
      "Ð²Ð»ÑıÐµÑĤÑģÑı": 1252,
      "Ġwere": 1253,
      "Ġour": 1254,
      "Ġag": 1255,
      "ree": 1256,
      "µÑīÐµ": 1257,
      "Ð½Ð¸Ðº": 1258,
      "Ð´ÐµÑĢÐ¶Ð": 1259,
      "ĠÐłÐ¾Ñģ": 1260,
      "µÑģÑĤÑĮ": 1261,
      "Ġlike": 1262,
      "reat": 1263,
      "ĠÐ±ÑĭÑĤÑĮ": 1264,
      "ĠÐ³Ð¾Ð´Ð°": 1265,
      "Ġwould": 1266,
      "ĠÑĥÐ¶Ðµ": 1267,
      "ical": 1268,
      "ult": 1269,
      "Ð¶Ð´Ð°": 1270,
      "ĠÑģÐ»ÑĥÑĩÐ°": 1271,
      "Ð²Ð¸Ñı": 1272,
      "Ð¹Ð": 1273,
      "Ġqu": 1274,
      "Ð¿Ð»Ð°": 1275,
      "ile": 1276,
      "Ġsaid": 1277,
      "¸Ð½Ð°": 1278,
      "Ð½Ð½ÑĭÑħ": 1279,
      "ĠÐ±ÐµÐ·": 1280,
      "Ġany": 1281,
      "own": 1282,
      "Ġun": 1283,
      "Ġbeen": 1284,
      "Ġsome": 1285,
      "ĠÐ¾ÑģÑĤÐ°": 1286,
      "ents": 1287,
      "Ġdis": 1288,
      "Ð²Ð°Ñı": 1289,
      "ount": 1290,
      "Ġnew": 1291,
      "ÑģÐ¿Ðµ": 1292,
      "ÑĢÐµÐ": 1293,
      "Ð¼Ð¾Ð¶Ð½Ð¾": 1294,
      "ÑĩÐµÑĤ": 1295,
      "Â»,": 1296,
      "¾Ð²": 1297,
      "ÐµÑģÑĤÑĮ": 1298,
      "Ð¾Ð½Ð¸": 1299,
      "·Ð¸": 1300,
      "Ð²Ð¾Ð³Ð¾": 1301,
      "ress": 1302,
      "µÐ²": 1303,
      "ÐŁÐ¾": 1304,
      "ÑĩÐµÐ½Ð¸Ñı": 1305,
      "'t": 1306,
      "ÑĤÐ¸ÑĩÐµÑģ": 1307,
      "ÑĤÐ¾Ð¼Ñĥ": 1308,
      "Ġtime": 1309,
      "ove": 1310,
      "ĠÐ¾Ð½Ð¸": 1311,
      "ĠÐ½ÐµÐ¾Ð±ÑħÐ¾Ð´Ð¸": 1312,
      "av": 1313,
      "ĠÐ±ÑĭÐ»Ð¾": 1314,
      "ĠÑģÐ¾Ð±": 1315,
      "Ġthere": 1316,
      "Ġkn": 1317,
      "Ġher": 1318,
      "ÑĨÐ¸Ñİ": 1319,
      "µÐ½Ñ": 1320,
      "Ġget": 1321,
      "Ð½Ð½ÑĭÐµ": 1322,
      "°ÑĢ": 1323,
      "µÐ½ÑĤ": 1324,
      "ÑģÑĤÐ¾Ñı": 1325,
      "ough": 1326,
      "ĠÐµÑģÑĤÑĮ": 1327,
      "ose": 1328,
      "Ð½Ñı": 1329,
      "Ð²ÐµÐ´Ð": 1330,
      "Ġsp": 1331,
      "Ð»ÑĮÐ½ÑĭÑħ": 1332,
      "°Ñı": 1333,
      "ĠÐºÑĢÐ°": 1334,
      "ings": 1335,
      "form": 1336,
      "ction": 1337,
      "Ð±Ñı": 1338,
      "ÑĤÐºÐ¸": 1339,
      "Ġthem": 1340,
      "Ð¿ÐµÑĨ": 1341,
      "ĠÐ³Ð»Ð°": 1342,
      "Ġar": 1343,
      "µÐ½Ð½Ð": 1344,
      "erv": 1345,
      "Ġover": 1346,
      "ĠÑĢÐ°ÑģÑģ": 1347,
      "¾Ð±Ð¾": 1348,
      "ÐºÐ»Ð°": 1349,
      "ence": 1350,
      "ÑĩÐ¸ÑĤÐ°": 1351,
      "ÐµÐµ": 1352,
      "Ð·Ð´Ð°": 1353,
      "ĠÑģÑĢÐµÐ´": 1354,
      "ÑĪÐ¾": 1355,
      "ĠIt": 1356,
      "ÑģÐºÐ¸Ð¹": 1357,
      "mer": 1358,
      "Ġpart": 1359,
      "ĠÐ¾Ð±ÑĬ": 1360,
      "¸ÑģÑĤÐµ": 1361,
      "ark": 1362,
      "¾ÑĩÐµÐ½ÑĮ": 1363,
      "Ð¾ÑĩÐµÐ½ÑĮ": 1364,
      "ĠÐ±Ð¾Ð»ÐµÐµ": 1365,
      "ĠÑģÐ°Ð¼Ð¾": 1366,
      "Ð²Ð»ÐµÐ½Ð¸Ñı": 1367,
      "Ġalso": 1368,
      "Ġ7": 1369,
      "ÑĢÐ¸Ð¸": 1370,
      "ĤÑĢÐ¾": 1371,
      "ÑĤÑĢÐ¾": 1372,
      "Ġwhen": 1373,
      "Ġsc": 1374,
      "ÐļÐ": 1375,
      "ĠÐµÐµ": 1376,
      "Ð²ÑĭÐ¹": 1377,
      "ĠÐ¾ÑĩÐµÐ½ÑĮ": 1378,
      "ĠÑĤÐ¾Ð³Ð¾": 1379,
      "Ð´ÐµÐ»Ð°": 1380,
      "Ġpe": 1381,
      "Ð²Ð¾Ð´": 1382,
      "Ð»Ð¾Ð²": 1383,
      "Ġrec": 1384,
      "Ġ10": 1385,
      "Ð¿ÑĢÐµ": 1386,
      "ĠÐ³ÑĢÐ°": 1387,
      "Ġwhat": 1388,
      "Ð¾Ð±Ð¾": 1389,
      "Ð·Ðµ": 1390,
      "ÐĿÐ°": 1391,
      "Ġjust": 1392,
      "Ð²Ð¸ÑĤÑĮ": 1393,
      "ÑĤÐµÐ»ÐµÐ¹": 1394,
      "ĠÐ¾ÑĢÐ³Ð°Ð½Ð¸Ð": 1395,
      "ÑģÐ¾Ð²": 1396,
      "irst": 1397,
      "vel": 1398,
      "ÑĨÑĭ": 1399,
      "ound": 1400,
      "Ġwork": 1401,
      "Ð¿Ñĭ": 1402,
      "ition": 1403,
      "ĠÐ¿ÑĢÐµÐ´ÑģÑĤÐ°": 1404,
      "Ð³Ðµ": 1405,
      "ob": 1406,
      "Ġthan": 1407,
      "ĠÐ¿ÑĢÐ¾Ð¸Ð·": 1408,
      "¸Ñ": 1409,
      "¸ÑĤ": 1410,
      "int": 1411,
      "ere": 1412,
      "ĠÑįÑĤÐ¸": 1413,
      "||": 1414,
      "ĠÑĥÑĩÐ°": 1415,
      "ors": 1416,
      "ÑĢÐµÐ´Ð¸": 1417,
      "ĠÐĹÐ°": 1418,
      "Ð²ÐµÑĢÐ": 1419,
      "ĠÐļÐ°": 1420,
      "Ġif": 1421,
      "ĠÐ´Ð¾Ð»Ð¶": 1422,
      "ink": 1423,
      "ĠÑįÑĤÐ¾Ð³Ð¾": 1424,
      "ÑĤÐµÑĢÐ¸Ð": 1425,
      "Ð»ÑĮÐ½ÑĭÐ¹": 1426,
      "ĠÐ¾Ð±Ð»Ð°": 1427,
      "Ð¸Ð¼": 1428,
      "ens": 1429,
      "µÐ½Ð¸ÐµÐ¼": 1430,
      "ÑĮÑİ": 1431,
      "Ð´ÐµÐ¹": 1432,
      "ĠÐŁÑĢÐ¸": 1433,
      "ĠÐ´ÐµÐ¹": 1434,
      "ish": 1435,
      "ĠÐŃÑĤÐ¾": 1436,
      "Ġ8": 1437,
      "ÑģÑĤÑĭ": 1438,
      "Ð³ÑĥÑ": 1439,
      "Ð³ÑĥÑĤ": 1440,
      "ĠÑģÐ¸ÑģÑĤÐµ": 1441,
      "µÐ½Ñĭ": 1442,
      "µÐ½Ðµ": 1443,
      "ĠÑĤÐµÐ¼": 1444,
      "ĠÐĵÐ": 1445,
      "µÐ½ÐºÐ": 1446,
      "Ð»ÑĮÐ½ÑĭÐ": 1447,
      "ĠÑĤÐ¾Ð¼": 1448,
      "ĠÐ¿Ð¾Ð·": 1449,
      "Ð»ÑĮÐ½ÑĭÐµ": 1450,
      "ÑĢÑĤÐ¸": 1451,
      "port": 1452,
      "Ð³Ð»Ð°": 1453,
      "ÑĢÑĤÐ°": 1454,
      "ÑĪÐµÐ½Ð¸Ñı": 1455,
      "Ð»ÑĥÑĩ": 1456,
      "ĠÑĤÐµÑħ": 1457,
      "·Ð¾": 1458,
      "âĢĶ": 1459,
      "Ð´Ð¾Ð²": 1460,
      "ory": 1461,
      "ĠÐ³ÑĢÑĥ": 1462,
      "Ð¾Ð½Ð°": 1463,
      "Ġbec": 1464,
      "Ð²Ð¾Ð": 1465,
      "ĠÑĤÑĥ": 1466,
      "ÑĤÐºÐ°": 1467,
      "Ġpre": 1468,
      "ov": 1469,
      "ÐºÐ°Ñı": 1470,
      "Ġfe": 1471,
      "wn": 1472,
      "Ġtw": 1473,
      "ĠÑģÐ¿ÐµÑĨ": 1474,
      "ĠÐºÐ¾Ð³Ð´Ð°": 1475,
      "Ġro": 1476,
      "Ð½ÐµÐµ": 1477,
      "ĠÐ¯": 1478,
      "ĠÐĽÐ": 1479,
      "ild": 1480,
      "ĠÐ½Ð°ÑĩÐ°": 1481,
      "Ð¸Ð°": 1482,
      "ĠÐłÐ¾ÑģÑģ": 1483,
      "ĠÐ³Ð°": 1484,
      "ĠÑĩÐµÐ¼": 1485,
      "ĠÐ²Ð·": 1486,
      "Ð²Ð°ÑİÑĤ": 1487,
      "Ð²Ð°ÐµÑĤÑģÑı": 1488,
      "ÑģÐ½Ð¾": 1489,
      "ÑĤÐ¸Ð": 1490,
      "ĠÑģÐ²Ñı": 1491,
      "Ġspe": 1492,
      "fter": 1493,
      "ĠÐ¿ÑĢÐ¾ÑĨÐµ": 1494,
      "ĠÑģÐ¾ÑģÑĤÐ°": 1495,
      "ĠÐĴÐ°": 1496,
      "Ġinto": 1497,
      "ĠÐ¾Ð±Ð¾": 1498,
      "ÑģÐ¾Ð±": 1499,
      "ĠHe": 1500,
      "ÐµÑīÐµ": 1501,
      "ÑıÑ": 1502,
      "ĠÐ´ÐµÐ»Ð°": 1503,
      "ÑıÑĤ": 1504,
      "ÑħÐ¸": 1505,
      "ĠÐ¥": 1506,
      "oy": 1507,
      "ĠÐ±ÑĭÐ»": 1508,
      "ĠÐ¾Ð½Ð°": 1509,
      "ÐºÑĤÐ¾": 1510,
      "itt": 1511,
      "ĠÐµÑīÐµ": 1512,
      "ĠÐºÐ¾ÑĤÐ¾ÑĢÑĭÐ¹": 1513,
      "ĠÐ¿ÑĢÐ°Ð²Ð¸": 1514,
      "vers": 1515,
      "ople": 1516,
      "ÑĤÐ¸Ð²": 1517,
      "Ð½Ð½Ð¾Ð¹": 1518,
      "ne": 1519,
      "ÑĢÐµÐ·": 1520,
      "ade": 1521,
      "Ð´ÐµÐ»Ð¸": 1522,
      "ĠWe": 1523,
      "ck": 1524,
      "Ġits": 1525,
      "ĠÐ¸ÑģÐ¿Ð¾Ð»ÑĮÐ·Ð¾": 1526,
      "Ð½Ð½ÑĭÐ¹": 1527,
      "ang": 1528,
      "µÐ½Ð½ÑĭÑħ": 1529,
      "ÑĢÐ¾Ð´": 1530,
      "Ð¡Ð": 1531,
      "ĠÐ¾ÑģÐ½Ð¾": 1532,
      "ĠÐ´ÐµÐ½ÑĮ": 1533,
      "Ð¼ÐµÐ½Ð¸": 1534,
      "ĠÐ¾ÑĤÐ½Ð¾": 1535,
      "nder": 1536,
      "ĠÐ¢Ð°": 1537,
      "¾Ðº": 1538,
      "Ð´Ð¾Ð¼": 1539,
      "Ġfirst": 1540,
      "Ġpr": 1541,
      "ÐľÐ": 1542,
      "ÑģÐºÐ¸Ñħ": 1543,
      "ĠÐºÐ¸": 1544,
      "ĠÑģÐ»ÐµÐ´Ñĥ": 1545,
      "âĢ¦": 1546,
      "Ð²Ð»Ðµ": 1547,
      "ĠÐ²Ð¾Ð·Ð¼Ð¾Ð¶Ð½Ð¾": 1548,
      "ĠÐĿÐµ": 1549,
      "Ð¶Ð´Ñĥ": 1550,
      "ÑİÑīÐµ": 1551,
      "Ð´Ð¸Ð½": 1552,
      "ĠÐ¿Ð¾Ð»": 1553,
      "Ð»ÑĮÑĤÐ°": 1554,
      "old": 1555,
      "ĤÑĢÐµ": 1556,
      "ÑĤÑĢÐµ": 1557,
      "ÑĪÐ¸Ñħ": 1558,
      "Ġam": 1559,
      "´Ðµ": 1560,
      "ÑĤÐµÐ»Ð¸": 1561,
      "ĠÐºÐ¾Ð¼Ð¿Ð°": 1562,
      "amp": 1563,
      "lic": 1564,
      "¾ÑĦÐ": 1565,
      "ĠÐ»ÐµÑĤ": 1566,
      "ĠÐ½ÑĥÐ¶Ð½Ð¾": 1567,
      "Ð»Ð¾Ð³Ð¸": 1568,
      "ÑģÑĤÐ²": 1569,
      "Ġshe": 1570,
      "ÑģÑĤÐ²Ðµ": 1571,
      "ons": 1572,
      "ĠÑĥÑģÑĤÐ°": 1573,
      "Ð´Ð°ÑĢ": 1574,
      "Ð¶ÐµÐ½": 1575,
      "ning": 1576,
      "¾ÑģÑĤÐ¾Ñı": 1577,
      "Ġ9": 1578,
      "ÑİÑīÐ¸Ðµ": 1579,
      "day": 1580,
      "¼Ð": 1581,
      "ĠÐ¼ÐµÐ½": 1582,
      "ÐĴÐ": 1583,
      "Ġno": 1584,
      "Ð¿ÐµÑĢÐ°": 1585,
      "ÑĩÐ¸ÑĤÑĮ": 1586,
      "Ð±Ð»Ðµ": 1587,
      "ÐĶÐ": 1588,
      "ĠÐ¾ÑĤÐº": 1589,
      "ian": 1590,
      "ÐłÐ": 1591,
      "ater": 1592,
      "ĠÑĤÑĢÑĥ": 1593,
      "ĠÑıÐ²Ð»ÑıÐµÑĤÑģÑı": 1594,
      "ÑİÑīÐ¸Ñħ": 1595,
      "ĠÐ¿Ð¾Ð´Ð": 1596,
      "ft": 1597,
      "µÐ½Ð½ÑĭÐµ": 1598,
      "ĠÑĤÑĭ": 1599,
      "oll": 1600,
      "rough": 1601,
      "hed": 1602,
      "ĠÑĩÐ¸": 1603,
      "ĠÐ´Ñĥ": 1604,
      "ĠÑĢÐ°Ð·Ð²Ð¸": 1605,
      "ĠÐºÐ°ÑĩÐµ": 1606,
      "Ġpeople": 1607,
      "end": 1608,
      "ÑĢÐ¾Ð²Ð°ÑĤÑĮ": 1609,
      "Ð»ÐµÐ½Ð¸Ðµ": 1610,
      "Ð½Ð³": 1611,
      "ĠÐ±ÑĥÐ´Ñĥ": 1612,
      "Ð½ÐµÐ½Ð¸Ñı": 1613,
      "ĠÐºÐ°Ð¶": 1614,
      "ÑģÑĤÑĢÐµ": 1615,
      "com": 1616,
      "ĠÐĴÑĭ": 1617,
      "ĠÑģÐ¾Ð·Ð´Ð°": 1618,
      "Ġbl": 1619,
      "ÐºÐ¾Ð½Ð¾": 1620,
      "Ġacc": 1621,
      "Ð¼ÐµÐ½ÑĤÐ°": 1622,
      "Ġhow": 1623,
      "ÑĢÐ°Ð±Ð¾": 1624,
      "Ð»Ð¾Ð¼": 1625,
      "Ð³Ð¸Ðµ": 1626,
      "ÑģÐ¾Ð±Ð": 1627,
      "ĠÑĢÐ°Ð±Ð¾ÑĤÐ°": 1628,
      "we": 1629,
      "ĠÐ²Ð¾Ð¿ÑĢÐ¾": 1630,
      "ĠÐ¾Ð±ÑĢÐ°Ð·Ð¾": 1631,
      "Ð²Ð°Ð": 1632,
      "ÐºÐ¾Ð³Ð¾": 1633,
      "clud": 1634,
      "ĠÐ¼Ð½Ð¾Ð³Ð¾": 1635,
      "ĠÐ¼Ð¾Ð³ÑĥÑĤ": 1636,
      "Ð»ÑĮÐ½Ð¾Ð³Ð¾": 1637,
      "ĠÐ¾Ð¿ÑĢÐµ": 1638,
      "Ð²Ð¾ÑĢÐ¸": 1639,
      "ÐµÐ²": 1640,
      "ates": 1641,
      "ĠÐ´Ð°Ð¶Ðµ": 1642,
      "ÑĦÐ¾ÑĢÐ¼Ð°": 1643,
      "ĠÑįÐº": 1644,
      "°Ð»": 1645,
      "ause": 1646,
      "ĠÐ¸Ð¼": 1647,
      "ool": 1648,
      "Ġonly": 1649,
      "Ð¨": 1650,
      "ĠÐ²Ð¾Ñģ": 1651,
      "ÑĤÑĥÐ": 1652,
      "ĤÑĢÐ¸": 1653,
      "ÑĤÑĢÐ¸": 1654,
      "ĠÑĤÑĢÐ°": 1655,
      "ÑĦÐµÐº": 1656,
      "ÑħÐ¾Ð´Ñı": 1657,
      "Ġtwo": 1658,
      "ĠÐľÐ°": 1659,
      "ĠÐ¿ÑĢÐ¾ÑģÑĤÐ¾": 1660,
      "Ð±ÑĢÐ°": 1661,
      "Ð³Ð¸Ð": 1662,
      "Ġcomm": 1663,
      "ĠÐķÑģÐ»Ð¸": 1664,
      "Ð¢Ð": 1665,
      "ÑĪÐµÐ¹": 1666,
      "ious": 1667,
      "ict": 1668,
      "Ð±Ð¾Ð¹": 1669,
      "anc": 1670,
      "Ð¦": 1671,
      "µÑĤÐµ": 1672,
      "ÐºÑĢÑĭ": 1673,
      "Ġknow": 1674,
      "gr": 1675,
      "ĠÐ¿Ð»Ð¾": 1676,
      "ull": 1677,
      "Ġneed": 1678,
      "Ð´ÐµÐ": 1679,
      "ÑĤÐµÐ¹": 1680,
      "Ð²Ð»ÐµÐ½Ð¸Ðµ": 1681,
      "Ð»Ð°Ð³Ð°": 1682,
      "Ġmay": 1683,
      "ĠÑģÐ¾Ð²": 1684,
      "ÑģÑĤÑĢÑĥ": 1685,
      "Ð¸Ð¾": 1686,
      "Ġdes": 1687,
      "Ð¼ÐµÐ½Ð½Ð¾": 1688,
      "ual": 1689,
      "ĠÐ¤Ð": 1690,
      "ĠÑģÐ´ÐµÐ»Ð°": 1691,
      "ÑĤÐ¾ÑĢÑĭ": 1692,
      "Ð¼ÐµÑĤ": 1693,
      "ÑĨÐ¸Ð¹": 1694,
      "¾Ð±Ðµ": 1695,
      "Ġback": 1696,
      "tern": 1697,
      "ĠÐ½ÐµÑģÐºÐ¾": 1698,
      "ĠRe": 1699,
      "Ð²Ð°Ð»Ð¸": 1700,
      "ph": 1701,
      "µÐ¼Ñĭ": 1702,
      "Ð»ÑĮÐ·Ñĥ": 1703,
      "ÐºÐ¾Ð½": 1704,
      "ĠÐ¿Ð¾Ð·Ð²Ð¾": 1705,
      "µÑİ": 1706,
      "iss": 1707,
      "Ð´Ð½Ð¸": 1708,
      "ĠÑĦÐ¸": 1709,
      "Ð¸Ð½Ñĭ": 1710,
      "Ð»ÑĮÐ½Ð¾Ð¹": 1711,
      "ÑĪÐµÐ½Ð¸Ðµ": 1712,
      "ÐºÐ°Ð¼Ð¸": 1713,
      "ÐºÑĥÑİ": 1714,
      "ÑĤÐµÑĢ": 1715,
      "Ð¿Ð¸ÑģÐ°": 1716,
      "Ð¾ÑĦÐ": 1717,
      "ĠÐ¼ÐµÐ½Ñı": 1718,
      "Ġplay": 1719,
      "iew": 1720,
      "ÑĩÑĥ": 1721,
      "Ð½Ð½Ð¾Ð³Ð¾": 1722,
      "ÐºÐ°Ð·Ñĭ": 1723,
      "ÑģÑĤÐ²Ð¸Ðµ": 1724,
      "hing": 1725,
      "ĠÑĢÐµÐ": 1726,
      "ÑĩÐµÑģÐºÐ¾Ð¹": 1727,
      "Ð»Ð°Ð³Ð¾": 1728,
      "ĠÐ¾Ð±ÑīÐµ": 1729,
      "aw": 1730,
      "ĠÐ²ÑģÐµÐ³Ð¾": 1731,
      "Ġbet": 1732,
      "ÑģÐºÐ¾Ð¼": 1733,
      "Ð¾Ð±Ðµ": 1734,
      "ÑĢÐ°Ðº": 1735,
      "Ġ20": 1736,
      "ÑģÐ»Ð¾": 1737,
      "ĠÐłÐ°": 1738,
      "ĠÐ»ÑĥÑĩ": 1739,
      "ÑĤÐ¸Ð²Ð½Ð¾": 1740,
      "Ð¼Ð¾ÑĤÑĢÐµ": 1741,
      "¾Ð¼": 1742,
      "Ġlook": 1743,
      "ÑģÑĤÑĮÑİ": 1744,
      "Ð³ÑĢÐ°Ð¼": 1745,
      "ÑĤÐ¸Ð²Ð": 1746,
      "ĠÐ¿Ð¾Ñı": 1747,
      "Ð´Ð¸Ð": 1748,
      "ĠÑģÐµÐ±Ñı": 1749,
      "iff": 1750,
      "Ġadd": 1751,
      "ĠÐ¿Ð¾Ð»Ð¸": 1752,
      "ĠÐ¾ÑĦÐ": 1753,
      "ÑĢÐ°Ñı": 1754,
      "Ġhim": 1755,
      "Ġsee": 1756,
      "ĠÐ¡Ð¾": 1757,
      "ĠÐ¾Ð±Ðµ": 1758,
      "Ġact": 1759,
      "ĠÑĩÑĥ": 1760,
      "Ðĸ": 1761,
      "ĤÑı": 1762,
      "ÑĤÑı": 1763,
      "ĠÐ³Ð¾Ð´Ñĥ": 1764,
      "Ð½Ð¸Ñİ": 1765,
      "Ð´ÐµÑĢÐ¶Ð°": 1766,
      "ĠÑĢÑĭ": 1767,
      "ÑĤÐ¸Ðµ": 1768,
      "Ġmost": 1769,
      "Ġ$": 1770,
      "ĠÐ½ÐµÐ¾Ð±ÑħÐ¾Ð´Ð¸Ð¼Ð¾": 1771,
      "Ġafter": 1772,
      "Ġinclud": 1773,
      "ĤÐ½Ð¾": 1774,
      "ÑĤÐ½Ð¾": 1775,
      "ĠÐ¼Ð°ÑĤÐµÑĢÐ¸Ð": 1776,
      "ĠÐ³Ð´Ðµ": 1777,
      "round": 1778,
      "Ð¸ÑĤ": 1779,
      "ily": 1780,
      "°Ð½Ð°": 1781,
      "Ġem": 1782,
      "ĠÑģÐ°Ð¼Ñĭ": 1783,
      "ĠÐ´Ð¸Ð": 1784,
      "ÑĩÐ¸Ð½Ð°": 1785,
      "Ġcould": 1786,
      "ÑģÐ»Ð°": 1787,
      "ĠÐłÐ¾ÑģÑģÐ¸Ð¸": 1788,
      "ĠÐ¿Ð¾Ð»Ð¾": 1789,
      "ĠÐ²ÑĭÑģÐ¾": 1790,
      "oint": 1791,
      "ĠÐ¸ÑģÑĤÐ¾": 1792,
      "ÑĤÐ¸ÑĤÑĮ": 1793,
      "âĢĵ": 1794,
      "xt": 1795,
      "ĠÑħÐ¾ÑĢÐ¾": 1796,
      "Ð¾Ðº": 1797,
      "Ð¹ÑĤÐ¸": 1798,
      "ĠÑģÐºÐ¾": 1799,
      "Ð»Ð¾Ð³Ð¾": 1800,
      "Ġmake": 1801,
      "Ð²Ð°ÑĤÑĮÑģÑı": 1802,
      "ÑħÐ¾Ð´Ð¸Ñ": 1803,
      "ÑħÐ¾Ð´Ð¸ÑĤ": 1804,
      "Ð·ÑĥÐ»ÑĮÑĤÐ°": 1805,
      "ĠÑģÐ»ÑĥÑĩÐ°Ð": 1806,
      "ĠÐĴÐ¾": 1807,
      "ĠÑģÐ¾Ð¾Ð±": 1808,
      "Ġfl": 1809,
      "Ð´Ð½Ñı": 1810,
      "ĠÐĶÐ°": 1811,
      "ÐºÐ°Ñħ": 1812,
      "ÑĢÐ¾Ð¸": 1813,
      "ĠÐĳÐ¾": 1814,
      "Ġ0": 1815,
      "Ð³Ð¸Ñħ": 1816,
      "Ġwant": 1817,
      "ĠÑģÑĤÐµ": 1818,
      "000": 1819,
      "ÑģÑĤÐ²Ð¸Ñı": 1820,
      "Ð»ÐµÐ½": 1821,
      "ÑĩÐµÑģÐºÐ¸Ñħ": 1822,
      "ĠÐ±ÑĭÐ»Ð¸": 1823,
      "Ġ12": 1824,
      "ÑĪÐµÐ³Ð¾": 1825,
      "Ġevery": 1826,
      "Ġthrough": 1827,
      "µÐ¼Ñĥ": 1828,
      ".\"": 1829,
      "ĠÐ¸Ð½ÑĦÐ¾ÑĢÐ¼Ð°": 1830,
      "·Ð°ÑĨÐ¸Ð¸": 1831,
      "sel": 1832,
      "ÑģÑģÐ°": 1833,
      "ĠÐ¶Ð¸Ð·": 1834,
      "Ð¿ÑĢÐ¸Ñı": 1835,
      "ÑĢÐ¿": 1836,
      "ÑıÐ·Ð°": 1837,
      "Ð½Ð°ÐºÐ¾": 1838,
      "ºÑĥ": 1839,
      "ÑĢÐ¾Ð³Ð¾": 1840,
      "Th": 1841,
      "ÑĩÑĮ": 1842,
      "Ġunder": 1843,
      "Ð½ÐºÐ°": 1844,
      "lect": 1845,
      "ĠÐºÑĢÑĥ": 1846,
      "ng": 1847,
      "Ġind": 1848,
      "Ð²Ð°Ð»": 1849,
      "Ġprov": 1850,
      "Ð´Ð½Ð¾": 1851,
      "ÑĢÐ³Ð": 1852,
      "Ð´ÑĥÐº": 1853,
      "Ġdid": 1854,
      "ational": 1855,
      "ise": 1856,
      "ĠÑĥÑģÐ»Ð¾": 1857,
      "ÑĢÐ½Ð¾": 1858,
      "ĠÐ½ÐµÑĤ": 1859,
      "ĠÐ¿ÑĢÐ¾Ð±Ð»Ðµ": 1860,
      "Ġ15": 1861,
      "ÑĩÐµÑģÐºÐ¾Ð³Ð¾": 1862,
      "ĠÐ»Ð°": 1863,
      "ĠÐ¼ÐµÐ¶Ð´Ñĥ": 1864,
      "ÑģÐºÐ¸Ðµ": 1865,
      "Ġcons": 1866,
      "ĠÐ²ÑģÐµÑħ": 1867,
      "ĠÐ¾Ðº": 1868,
      "Ð±Ð»Ð¸": 1869,
      "ont": 1870,
      "ÑĩÐ½Ð¾Ð¹": 1871,
      "urn": 1872,
      "ĠÐ´Ð¾ÑģÑĤÐ°": 1873,
      "Ð¼Ð¾Ð": 1874,
      "µÐµÑĤ": 1875,
      "ĠÐ»Ð¾": 1876,
      "ĠÐ¾Ð¿ÑĢÐµÐ´Ðµ": 1877,
      "ĠÐŁÑĢÐ¾": 1878,
      "Ð¾Ð±ÑĢÐ°": 1879,
      "ject": 1880,
      "Ð¾ÑĤÐ²ÐµÑĤ": 1881,
      "uch": 1882,
      "les": 1883,
      "Ð¼ÐµÐ½Ñ": 1884,
      "Ð¼ÐµÐ½ÑĤ": 1885,
      "¸Ð½Ñĥ": 1886,
      "ĠÐ¶ÐµÐ½": 1887,
      "Ġwell": 1888,
      "Ð´Ð¾ÑģÑĤÐ°": 1889,
      "ĠÑĦÑĥ": 1890,
      "ĠÐĿ": 1891,
      "ock": 1892,
      "ÑģÐºÐ°Ñı": 1893,
      "fore": 1894,
      "ÑĪÐ¸Ðµ": 1895,
      "ÑģÐºÐ¾Ð": 1896,
      "ĠÐ¼Ð½Ð¾": 1897,
      "Ġthese": 1898,
      "Ġnow": 1899,
      "ÑĩÐºÐ¸": 1900,
      "ĠÑģÐ»ÑĥÑĩÐ°Ðµ": 1901,
      "ating": 1902,
      "Ġyears": 1903,
      "ÑĢÐ¸Ðµ": 1904,
      "ĠÑĢÑĥÐ±": 1905,
      "ĠUn": 1906,
      "Ð³Ð¾Ð²Ð¾": 1907,
      "Ġph": 1908,
      "ĠÐ½Ð¸Ñħ": 1909,
      "ĠThis": 1910,
      "ĠÑĢÐµÐ·ÑĥÐ»ÑĮÑĤÐ°": 1911,
      "Ġgood": 1912,
      "ÑĥÑİ": 1913,
      "µÐ·": 1914,
      "ĠÑĥÐ²Ðµ": 1915,
      "10": 1916,
      "ities": 1917,
      "Ð½Ð²": 1918,
      "tt": 1919,
      "ĠÑĩÐµÑĢÐµÐ·": 1920,
      "µÑĪÐ": 1921,
      "Ġco": 1922,
      "Ġvery": 1923,
      "row": 1924,
      "lp": 1925,
      "ĠÐ²Ð»Ð°": 1926,
      "Ð»Ð¸ÑĩÐµ": 1927,
      "µÐ½Ð½ÑĭÐ¹": 1928,
      "ÑģÐºÐ¾Ðµ": 1929,
      "Ġbu": 1930,
      "ÑģÑĤÑĢÐ¾Ð¹": 1931,
      "Ð²Ð¾Ðµ": 1932,
      "ÑĦÑĦÐµÐº": 1933,
      "ÑģÑĥÐ´Ð°ÑĢ": 1934,
      "Ġ18": 1935,
      "ÑĤÐ½ÑĭÑħ": 1936,
      "ĠÑħÐ°": 1937,
      "Ð¹Ð½": 1938,
      "ife": 1939,
      "ĠÐ²Ð°Ð¼": 1940,
      "ÑĤÑĥÐ°": 1941,
      "ÑĮÐ": 1942,
      "ĠÐ±Ð¾Ð»ÑĮÑĪÐµ": 1943,
      "ÑģÑĤÑĢÐ¾": 1944,
      "ÑģÑĤÑĥÐ¿": 1945,
      "Ð·Ñı": 1946,
      "ec": 1947,
      "Ġuse": 1948,
      "ĠÑģÑĤÐ¾ÑĢÐ¾": 1949,
      "Ð»Ð¸Ð·": 1950,
      "ss": 1951,
      "Ð½Ð²Ð": 1952,
      "enc": 1953,
      "ĠÐ·Ð°Ñı": 1954,
      "ĠÑĢÐ°Ð±Ð¾ÑĤÑĭ": 1955,
      "rit": 1956,
      "ĠÑģÐ¿ÐµÑĨÐ¸Ð°": 1957,
      "½ÑĤÐ°": 1958,
      "ĠÐ¡Ð°": 1959,
      "Ð¼ÐµÑīÐ": 1960,
      "ĠÐ½Ð°Ñģ": 1961,
      "ÑĢÐ¸Ñı": 1962,
      "Ġbr": 1963,
      "Ġeven": 1964,
      "µÐ´Ð¸": 1965,
      "ts": 1966,
      "pect": 1967,
      "ÑĢÐ´": 1968,
      "ĠÐ³Ð¾ÑĢÐ¾": 1969,
      "Ġhelp": 1970,
      "Ð¼Ð¾Ð¹": 1971,
      "µÐ½Ð½Ð¾Ð¹": 1972,
      "ĠÐ³Ð¾ÑģÑĥÐ´Ð°ÑĢ": 1973,
      "ĠÑģÐ¾ÑģÑĤÐ¾Ñı": 1974,
      "hen": 1975,
      "Ġstud": 1976,
      "Ġthen": 1977,
      "ĠAnd": 1978,
      "ident": 1979,
      "ÑģÐº": 1980,
      "ĠÐ±ÑĭÐ»Ð°": 1981,
      "ell": 1982,
      "Ġsec": 1983,
      "Ð²ÑĭÐ¼": 1984,
      "ĠÐ´Ð¸": 1985,
      "ĠÑĥÐ´Ð°": 1986,
      "¶Ð°": 1987,
      "ĠÐ¾ÑĤÐ´Ðµ": 1988,
      "oth": 1989,
      "Ð»Ð¾Ð³Ð": 1990,
      "Ð¸Ð³": 1991,
      "Ġway": 1992,
      "ĠÐ§Ð": 1993,
      "ÑĪÑĮ": 1994,
      "yst": 1995,
      "ĠCom": 1996,
      "Ġright": 1997,
      "Ð½Ð¸ÐºÐ¾Ð²": 1998,
      "Ġprodu": 1999,
      "ÑĢÑıÐ´": 2000,
      "ĠÑģÐºÐ°Ð·Ð°": 2001,
      "ĠÐ¾Ð±ÑıÐ·Ð°": 2002,
      "als": 2003,
      "µÐ½ÑĤÐ°": 2004,
      "Ġinv": 2005,
      "ĠÐ¾ÑĤÐ¼Ð": 2006,
      "ÐºÐ¾Ðµ": 2007,
      "man": 2008,
      "Ġthink": 2009,
      "ÑĨÐ¸Ð¾Ð½Ð°": 2010,
      "ĠÑģÐ¾Ð¾ÑĤÐ²ÐµÑĤ": 2011,
      "Ð½Ð´Ð¸": 2012,
      "Ð½Ð¸ÐºÐ¸": 2013,
      "Ġsupp": 2014,
      "Ġdon": 2015,
      "Ġbecause": 2016,
      "Ġshould": 2017,
      "ific": 2018,
      "Ġrel": 2019,
      "Ġreg": 2020,
      ".,": 2021,
      "ĠÐľÐ¾": 2022,
      "ĠÐ¾ÑĤÐºÑĢÑĭ": 2023,
      "Ġwhere": 2024,
      "Ġev": 2025,
      "Ð´Ð¾Ð»Ð": 2026,
      "ments": 2027,
      "ÑĤÐ¾Ðº": 2028,
      "Ġmany": 2029,
      "ÑģÑĤÑı": 2030,
      "ĠÐ¿ÑĢÐ¾Ð´ÑĥÐº": 2031,
      "ÑĢÐ¼Ð¸": 2032,
      "ĠÐ´Ð¾ÐºÑĥ": 2033,
      "Ġagain": 2034,
      "\".": 2035,
      "Ġserv": 2036,
      "Ġrem": 2037,
      "ward": 2038,
      "ÑĮÑı": 2039,
      "ÑģÐ»Ñĥ": 2040,
      "Ġgu": 2041,
      "ĠÐĹ": 2042,
      "ÑĨÐ¸Ð°": 2043,
      "ÐºÑĢÐµ": 2044,
      "rib": 2045,
      "Ð¿Ð°ÑĢÐ°": 2046,
      "oss": 2047,
      "ÑĥÑĢ": 2048,
      "ĠÑģÐ²Ð¾Ð¸": 2049,
      "ÑģÑĤÐ²ÐµÐ½Ð½Ð": 2050,
      "ied": 2051,
      "other": 2052,
      "ĠÐ½ÐµÑģÐºÐ¾Ð»ÑĮÐºÐ¾": 2053,
      "ÑİÑīÐ¸Ð¹": 2054,
      "ics": 2055,
      "Ġtoo": 2056,
      "ÑģÑĤÐ²ÑĥÐµÑĤ": 2057,
      "olog": 2058,
      "ath": 2059,
      "°Ð´": 2060,
      "ĠÐ¸Ð½ÑĤÐµÑĢÐµ": 2061,
      "ĠÑįÑĤÐ¾Ñ": 2062,
      "ĠÑįÑĤÐ¾ÑĤ": 2063,
      "µÑĦÐ": 2064,
      "ÐºÐ°Ð": 2065,
      "ÑģÑĤÐ²Ð¾Ð¼": 2066,
      "up": 2067,
      "Ġimp": 2068,
      "ert": 2069,
      "ason": 2070,
      "±Ñĥ": 2071,
      "ÑĢÐ°Ð²": 2072,
      "ĠÐĶÐ»Ñı": 2073,
      "ĠÑįÑĤÐ¾Ð¹": 2074,
      "Ġcol": 2075,
      "ased": 2076,
      "aking": 2077,
      "Ð°Ð½Ð°": 2078,
      "Ð¿Ð»Ð¾": 2079,
      "Ġdiff": 2080,
      "ĠÐ¶Ð¸Ð·Ð½Ð¸": 2081,
      "ĠÐ¿ÑĢÐ¸Ð·": 2082,
      "ĠÐ¨": 2083,
      "\",": 2084,
      "ĠWh": 2085,
      "Ġinc": 2086,
      "ĠNew": 2087,
      "ĠÑĥÐ¿ÑĢÐ°": 2088,
      "ices": 2089,
      "ÑħÐ¾Ð´": 2090,
      "ÐºÑĤÐ¸": 2091,
      "ful": 2092,
      "Ð¿Ð¸Ñģ": 2093,
      "ÐµÐ´Ð¸": 2094,
      "Ġass": 2095,
      "ĠÐºÑĢÐ¾": 2096,
      "Ð¿Ð¾Ð»Ð½Ð¸": 2097,
      "ting": 2098,
      "ÑĨÑĥ": 2099,
      "Ð²ÑĢÐ°": 2100,
      "ÑĤÐ½ÑĭÐµ": 2101,
      "Ð²ÑĥÑİ": 2102,
      "ĠÐ·Ð°Ð±Ð¾": 2103,
      "ĠÐºÐ¾Ð¼Ð¿": 2104,
      "ited": 2105,
      "Ð½Ð¾Ð²Ð¸": 2106,
      "Ġdown": 2107,
      "ÑĪÐ¸Ð¹": 2108,
      "Ġmuch": 2109,
      "Ð²Ð»ÑıÐµÑĤ": 2110,
      "Ġfin": 2111,
      "¾Ð´Ð¸Ð½": 2112,
      "Ð»Ð¸Ñı": 2113,
      "Ð¾Ð´Ð¸Ð½": 2114,
      "ork": 2115,
      "ĠÐ¼Ð¾Ð»Ð¾": 2116,
      "ÑĤÐ¾ÑĢ": 2117,
      "ĠÐ¿ÑĢÐ¾Ð²Ðµ": 2118,
      "Ð²Ð¸ÑģÐ¸": 2119,
      "ĠÑİ": 2120,
      "und": 2121,
      "ĠÐºÐ¾Ð»Ð¸ÑĩÐµ": 2122,
      "ĠÐ´Ð¾Ð¼Ð°": 2123,
      "get": 2124,
      "Ġgreat": 2125,
      "ĠÑĤÐ¸": 2126,
      "Ð¿Ð°Ñģ": 2127,
      "ower": 2128,
      "ĠÑįÑĦÑĦÐµÐº": 2129,
      "ĠÐ¾Ð´Ð¸Ð½": 2130,
      "Ġsm": 2131,
      "20": 2132,
      "ÑĤÐ¾Ð¹": 2133,
      "Ġke": 2134,
      "ĠÑģÐ¿Ð¾ÑģÐ¾Ð±": 2135,
      "erson": 2136,
      "Ġgr": 2137,
      "Ġown": 2138,
      "ĠÐ¿ÑĢÐ¾Ð³ÑĢÐ°Ð¼": 2139,
      "Ġatt": 2140,
      "ÐµÐ·": 2141,
      "ÑĩÐµÑģÐºÐ¸Ðµ": 2142,
      "ĠÐºÐ»Ð°": 2143,
      "ÐºÐ¸Ð¼Ð¸": 2144,
      "Ġwee": 2145,
      "Ð°Ð´": 2146,
      "ĠÐļÐ°Ðº": 2147,
      "ÑĩÐ½ÑĭÑħ": 2148,
      "Ð½Ð´Ð°": 2149,
      "ble": 2150,
      "ÑģÑģÐ¾": 2151,
      "Ð±Ð¸ÑĢÐ°": 2152,
      "Ð´ÐµÑģÑĮ": 2153,
      "ĠÐ³Ð¾Ð²Ð¾ÑĢÐ¸": 2154,
      "ĠÐ¸Ð¼ÐµÐµÑĤ": 2155,
      "uring": 2156,
      "formation": 2157,
      "chool": 2158,
      "ĠÑģÑĤÐ°ÑĤÑĮ": 2159,
      "Ġent": 2160,
      "Ð²Ð¾Ð¼": 2161,
      "ĠÐ¿Ð¾Ð¼Ð¾Ñī": 2162,
      "Ð»ÑĮÐ½Ð°Ñı": 2163,
      "ĠÐ¿ÑĢÐ¾ÐµÐº": 2164,
      "¸Ð¼Ð¾": 2165,
      "ix": 2166,
      "½Ñ": 2167,
      "ys": 2168,
      "Ġhere": 2169,
      "its": 2170,
      "ures": 2171,
      "ible": 2172,
      "ĠÐºÑĤÐ¾": 2173,
      "ility": 2174,
      "ren": 2175,
      "ĠÐ¼Ð½Ðµ": 2176,
      "ĠÑģÑĥÑīÐµ": 2177,
      "ange": 2178,
      "Ġlast": 2179,
      "ÑĩÐ°Ñģ": 2180,
      "ĠÐ¥Ð": 2181,
      "Ġstart": 2182,
      "In": 2183,
      "ÑĤÐ¾ÑĩÐ½Ð¾": 2184,
      "ĠÐ´ÑĢÑĥÐ³Ð¾": 2185,
      "Ð½ÑĥÑİ": 2186,
      "ĠÐºÐ¾ÑĤÐ¾ÑĢÐ°Ñı": 2187,
      "ĠPro": 2188,
      "µÐ½Ð½Ð¾Ð³Ð¾": 2189,
      "ÑĤÐµÐ»ÑĮÑģÑĤÐ²Ð°": 2190,
      "ative": 2191,
      "ÑĤÐµÐ": 2192,
      "ĠÑĢÐ¸": 2193,
      "ÑģÑĤÐµÐ¹": 2194,
      "Ð²Ð¸Ð¶Ð": 2195,
      "Ð¶Ð´ÐµÐ½Ð¸Ñı": 2196,
      "Ġpres": 2197,
      "Ġ.": 2198,
      "air": 2199,
      "io": 2200,
      "Ġsuch": 2201,
      "ĠÐ¿Ð¾ÑģÑĤÐ°": 2202,
      "ĠÑģÑĩÐ¸ÑĤÐ°": 2203,
      "bs": 2204,
      "arch": 2205,
      "Ġshow": 2206,
      "ex": 2207,
      "ĠYou": 2208,
      "ĠÐ³Ð¾Ð»Ð¾": 2209,
      "cess": 2210,
      "ÐºÐ»ÑİÑĩÐ°": 2211,
      "hip": 2212,
      "Ð¸Ð±Ð¾": 2213,
      "ystem": 2214,
      "ÐŁÑĢÐ¸": 2215,
      "hes": 2216,
      "ĠÐ½Ð°Ð¿ÑĢÐ°": 2217,
      "Ġac": 2218,
      "ĠÐ¼Ð°ÑĤÐµÑĢÐ¸Ð°": 2219,
      "Ġthose": 2220,
      "ĠÐ¦": 2221,
      "ÑĩÐ½ÑĭÐ¹": 2222,
      "ÑĢÐ¾Ðµ": 2223,
      "ÑĩÐ½ÑĭÐµ": 2224,
      "ular": 2225,
      "ĠÑĦÐ¾ÑĤÐ¾": 2226,
      "ĠÐ²Ð°Ñģ": 2227,
      "ublic": 2228,
      "Ð½ÐµÐ½Ð¸Ðµ": 2229,
      "ÑģÑĪ": 2230,
      "Ġcall": 2231,
      "ĠÐŀÐ": 2232,
      "Ġmade": 2233,
      "Ð¾ÑģÐ»Ðµ": 2234,
      "ener": 2235,
      "ĠÑģÐ¼Ð¾": 2236,
      "ĠÐ²Ð½Ñĥ": 2237,
      "ĠÐºÐ¾ÑĤÐ¾ÑĢÑĭÑħ": 2238,
      "½ÑĤ": 2239,
      "omet": 2240,
      ",\"": 2241,
      "ÑĩÐ½Ð¾Ð³Ð¾": 2242,
      "ÐµÐ¼Ñĥ": 2243,
      "ner": 2244,
      "201": 2245,
      "ĠÐŀÐ½": 2246,
      "ĠÑĥÑĢÐ¾": 2247,
      "ĠÐ¸ÑģÐ¿Ð¾Ð»ÑĮÐ·Ñĥ": 2248,
      "ĠÑģÐ²Ð¾Ð¹": 2249,
      "Ġdoes": 2250,
      "Ð¶ÐµÑĤÐµ": 2251,
      "gram": 2252,
      "ĠÐ°Ð´": 2253,
      ".âĢĿ": 2254,
      "ĠÐ¾Ð±Ð»Ð°ÑģÑĤÐ¸": 2255,
      "Ġlong": 2256,
      "ĠÐ¿Ð¾Ð´Ð¾": 2257,
      "ĠÑįÐ»ÐµÐº": 2258,
      "ci": 2259,
      "ms": 2260,
      "ĠÐ²Ð½Ð¸Ð¼Ð°": 2261,
      "ĠÐĶÐ¾": 2262,
      "Ð½Ð¸Ð·": 2263,
      "19": 2264,
      "ĠÐ¿Ð¾Ð»ÑĥÑĩÐ¸": 2265,
      "ĠÐ³ÑĢÑĥÐ¿": 2266,
      "ĠÐ¢Ð¾": 2267,
      "Ġdec": 2268,
      "ÑıÑĤÑĮ": 2269,
      "ĠÐ¿Ð¾Ð´Ð°": 2270,
      "iness": 2271,
      "Ġbefore": 2272,
      "ÐµÐ¼Ñĭ": 2273,
      "ĠÐ±ÑĥÐ´ÑĥÑ": 2274,
      "ĠÐ±ÑĥÐ´ÑĥÑĤ": 2275,
      "ĠÐ±Ð»Ð°Ð³Ð¾": 2276,
      "ÑģÐ»ÐµÐ´Ð¾": 2277,
      "gan": 2278,
      "Ġend": 2279,
      "pr": 2280,
      "Ð¿ÑĢÐ¸Ð¼ÐµÑĢ": 2281,
      "velop": 2282,
      "ĠÐ²ÑĢÐ°": 2283,
      "Ġ30": 2284,
      "ĠÐ°Ð½Ð°": 2285,
      "ĠÐ±ÐµÑģ": 2286,
      "ÑģÑĥÑ": 2287,
      "Ġread": 2288,
      "ÑģÑĥÑĤ": 2289,
      "ax": 2290,
      "ĠÐ¾ÑĤÐ¼Ðµ": 2291,
      "Ġset": 2292,
      "ues": 2293,
      "ank": 2294,
      "ĠÑĩÐµÐ»Ð¾Ð²ÐµÐº": 2295,
      "Ð´ÐµÑĢÐ°": 2296,
      "Ġbeing": 2297,
      "alk": 2298,
      "ÑīÐ°Ñı": 2299,
      "ÑģÐ¸Ñı": 2300,
      "Ġmon": 2301,
      "Ġinte": 2302,
      "ĠÑħÐ°ÑĢÐ°Ðº": 2303,
      "ĠÑĢÐµÐ°": 2304,
      "ĠÐ²ÐµÑĢ": 2305,
      "ĠÑįÑĤÐ°": 2306,
      "Ð³Ð»Ñı": 2307,
      "ĠÐ¿Ð¾Ñį": 2308,
      "Ð½Ð½ÑĭÐ¼": 2309,
      "ÐºÐ¾Ð½Ð¾Ð¼Ð¸": 2310,
      "Ð½Ð¾Ðº": 2311,
      "ĠÑĦÐ°Ðº": 2312,
      "ĠÐ½ÐµÐºÐ¾": 2313,
      "ÐĳÐ": 2314,
      "ĠDe": 2315,
      "Ġday": 2316,
      "ĠÑģÐºÐ°": 2317,
      "ÑĥÑīÐµ": 2318,
      "Ġ11": 2319,
      "Ġbel": 2320,
      "ÐļÐ°Ðº": 2321,
      "ĠAl": 2322,
      "Ġinst": 2323,
      "Ð»ÑĮÐ½ÑĭÐ¼": 2324,
      "ĠÐ¾Ð±ÐµÑģÐ¿Ðµ": 2325,
      "ĠÑģÐ°Ð¹": 2326,
      "any": 2327,
      "Ð»Ð¸Ð±Ð¾": 2328,
      "Ġ&": 2329,
      "Ð±ÑĢÑı": 2330,
      "meric": 2331,
      "Ð½Ð»": 2332,
      "ÑĤÐ°Ð¼Ð¸": 2333,
      "Ġpol": 2334,
      "ĠÐ¿Ð¾ÐºÐ°Ð·Ð°": 2335,
      "¾ÑģÐ¾Ð±Ð": 2336,
      "Ð¾ÑģÐ¾Ð±Ð": 2337,
      "ÑĨÐµÐ²": 2338,
      "ÑĢÐµÐ¼ÐµÐ½Ð": 2339,
      "ÑīÐ¸Ñħ": 2340,
      "±Ð¸": 2341,
      "az": 2342,
      "Ġhigh": 2343,
      "Ġdef": 2344,
      "Ġeff": 2345,
      "ĠÐĴÑģÐµ": 2346,
      "ĠÐ¡Ðµ": 2347,
      "ÐºÑģÐ¸": 2348,
      "±Ð°": 2349,
      "50": 2350,
      "ars": 2351,
      "ĠÐ´Ð²Ñĥ": 2352,
      "ÑĪÐºÐ¸": 2353,
      "Ġmin": 2354,
      "ĠÐ·Ð°ÑīÐ¸": 2355,
      "ÑĢÐ³": 2356,
      "ĠÐ·Ð°Ð´Ð°": 2357,
      "ĠAr": 2358,
      "ÐµÑĤÐµ": 2359,
      "Ġtake": 2360,
      "ĠÑĦÐ°": 2361,
      "--": 2362,
      "ĠÐ½ÐµÐ³Ð¾": 2363,
      "ĠÐ¸Ð¼ÐµÑİ": 2364,
      "way": 2365,
      "´Ð°": 2366,
      "ÐºÐ°Ð½": 2367,
      "ĠÐ¼ÐµÑģÑı": 2368,
      "ÑĪÐ¸Ð¼": 2369,
      "ÑĢÐ¾Ðº": 2370,
      "ĠÐ¿Ð¾Ñĩ": 2371,
      "ĠÐ²ÑģÐµÐ³Ð´Ð°": 2372,
      "ÑĢÐ°Ð²Ð¸": 2373,
      "Ð²Ð¾Ð·": 2374,
      "¾Ð¹": 2375,
      "ĠÐľÐ¾Ñģ": 2376,
      "alth": 2377,
      "ĠÐ¿ÑĢÐ¾Ð´Ð°": 2378,
      "ÑģÑģÐ¸": 2379,
      "Ð»ÐµÐ·": 2380,
      "Ġspec": 2381,
      "ĠÐ»ÑİÐ±Ð¾": 2382,
      "ĠBut": 2383,
      "ĠÐ´ÐµÑı": 2384,
      "Ġsur": 2385,
      "ĠÐ¾ÑģÐ¾Ð±Ð": 2386,
      "Ġfind": 2387,
      "ĠÑģÑĤÐ¸": 2388,
      "Ð½Ð½Ð°Ñı": 2389,
      "ĠÑģÐµÐ±Ðµ": 2390,
      "ÑĢÐºÐ°": 2391,
      "ah": 2392,
      "ĠÑģÐ²Ðµ": 2393,
      "ĠÐ¿ÑĢÐ¸Ð½Ñı": 2394,
      "ÑĤÐ½ÑĭÐ¹": 2395,
      "Ð¶Ñĥ": 2396,
      "ters": 2397,
      "ince": 2398,
      "ement": 2399,
      "Ð°Ð½": 2400,
      "ÑħÑĢÐ°": 2401,
      "ĠÑĩÐµÐ»Ð¾Ð²ÐµÐºÐ°": 2402,
      "ÑĤÐµÐ¼": 2403,
      "ÑĤÐµÑĢÐ°": 2404,
      "Ð´ÐµÐ¾": 2405,
      "ÑĤÐµÐ»ÑĮÐ½Ð¾ÑģÑĤÐ¸": 2406,
      "ĠÐ¿Ð¾Ñģ": 2407,
      "Ġmem": 2408,
      "12": 2409,
      "ĠÐ¿Ð¾Ð·Ð²Ð¾Ð»Ñı": 2410,
      "Ð¿ÐµÑĢ": 2411,
      "ÑĤÐµÐ»ÑĮÐ½ÑĭÑħ": 2412,
      "ÑĤÐ¸Ð¹": 2413,
      "ÑħÐ¾ÑĤ": 2414,
      "ĠÑĢÐ°Ð·Ð": 2415,
      "ĠÑģÐ¾ÑĤ": 2416,
      "ĠÐľÐ¸": 2417,
      "ave": 2418,
      "ĠÐ´ÑĢÑĥÐ³Ð¸Ñħ": 2419,
      "ĠÑĤÐ¾Ð²Ð°": 2420,
      "ÑģÑĤÑĢÑĥÐº": 2421,
      "Ð¸Ð·Ð½Ðµ": 2422,
      "Ð½ÐºÐ¸": 2423,
      "ĠÐ·Ð°Ð¼Ðµ": 2424,
      "Ð½Ð»Ð": 2425,
      "ĠÐ¿ÐµÑĢÐµÐ´": 2426,
      "ĠÐ·Ð½Ð°ÑĩÐ¸": 2427,
      "Ġbus": 2428,
      "ced": 2429,
      "¾Ð¿ÐµÑĢÐ°": 2430,
      "ĤÐ²ÐµÑĢÐ": 2431,
      "ÑĤÐ²ÐµÑĢÐ": 2432,
      "ÑĢÐ¸Ð¹": 2433,
      "ĠÐĸ": 2434,
      "ĠÐ»ÐµÐ³": 2435,
      "Ġsay": 2436,
      "ÑģÐ¾Ð¼": 2437,
      "oun": 2438,
      "rest": 2439,
      "Ġinformation": 2440,
      "ĠÐ¿ÐµÑĢÐ¸Ð": 2441,
      "ĠÐ½Ð°ÑĢÑĥ": 2442,
      "ÐļÐ¾": 2443,
      "ĠÐ²ÑģÑ": 2444,
      "ĠÐ¾ÑĤÐ¿": 2445,
      "Ġloc": 2446,
      "Ġop": 2447,
      "ee": 2448,
      "ĠÐºÐ²Ð°": 2449,
      "ÑĩÐ°ÑĤÑĮ": 2450,
      "Ð®": 2451,
      "Ð½Ð¸ÑĤÑĮ": 2452,
      "Ð¼Ð¾ÑģÑĤÐ¸": 2453,
      "ollow": 2454,
      "ĠÑģÐ¾Ð³Ð»Ð°": 2455,
      "Ġpoint": 2456,
      "Ġworld": 2457,
      "ĠÐ¾Ð±Ñĭ": 2458,
      "Ð²ÐºÐ¸": 2459,
      "ĠÑĢÐ°ÑģÐ¿Ð¾": 2460,
      "Ġgoing": 2461,
      "Ð²ÐµÐ´ÐµÐ½Ð¸Ñı": 2462,
      "ually": 2463,
      "Ð½Ð¸Ð¼": 2464,
      "ĠÑĢÐ°Ð·Ð»Ð¸ÑĩÐ": 2465,
      "ĠÐĴÐµ": 2466,
      "ather": 2467,
      "Ġreally": 2468,
      "ĠÑģÐ¾Ð²ÐµÑĢ": 2469,
      "Ġthough": 2470,
      "ÐºÐ¾Ð¼ÐµÐ½Ð": 2471,
      "land": 2472,
      "ĠSh": 2473,
      "ivers": 2474,
      "Ġexper": 2475,
      "¾ÑĩÐµ": 2476,
      "Ð²ÐµÑĢÑħ": 2477,
      "ĠÐ¿Ð¾ÑģÐ»ÐµÐ´": 2478,
      "irect": 2479,
      "Ġi": 2480,
      "Ð³ÑĢÐµ": 2481,
      "ĠÐ²ÑģÑĤÑĢÐµ": 2482,
      "ĠÐ¿ÑĢÐ°Ð²Ð¾": 2483,
      "ĠÑĥÑģÐ»Ð¾Ð²Ð¸Ñı": 2484,
      "ÑĤÐµÐ»ÑĮÐ½ÑĭÐ": 2485,
      "ÑĤÐµÐ»ÑĮÐ½ÑĭÐµ": 2486,
      "ĠÐºÐ°ÑĢ": 2487,
      "ĠÐ´Ð²Ð°": 2488,
      "ĠÐ²ÑĢÐµÐ¼ÐµÐ½Ð¸": 2489,
      "ĠÐ³Ðµ": 2490,
      "Ð½Ð»Ð°": 2491,
      "ĠÐµÐ¼Ñĥ": 2492,
      "ĠÐ·Ð°Ð±Ð¾Ð»Ðµ": 2493,
      "ÑĢÐ½ÑĭÑħ": 2494,
      "ĠÐ¼ÑĥÐ¶": 2495,
      "imes": 2496,
      "Ð¿Ð¸ÑĤÑĮ": 2497,
      "atch": 2498,
      "ĠÐ´ÐµÑĤ": 2499,
      "ÑĢÐ°Ð·": 2500,
      "ĠÐºÑĢÐµ": 2501,
      "Ġear": 2502,
      "Ġfam": 2503,
      "Ð´Ð¾Ð±": 2504,
      "ĠÑĤÐµÑĢ": 2505,
      "Ð¼Ð¸Ð½Ð°": 2506,
      "Ġcour": 2507,
      "Ð²Ð»ÑıÑİÑĤÑģÑı": 2508,
      "ÐķÑģÐ»Ð¸": 2509,
      "ces": 2510,
      "Ð½Ð¾ÑģÑĤÑĮÑİ": 2511,
      "30": 2512,
      "Ð»ÐºÐ¸": 2513,
      "ins": 2514,
      "ÑģÑģÐ¸Ð¹": 2515,
      "Ð»ÐµÐ¼": 2516,
      "ĠÐ¿Ð¾ÐºÑĥ": 2517,
      "ĠÐºÐ¾Ð¼Ð¿Ð°Ð½Ð¸Ð¸": 2518,
      "self": 2519,
      "ÑĤÑĥÑĢÑĭ": 2520,
      "âĢľ": 2521,
      "Ġsub": 2522,
      "ĠÐ³ÑĢÐ°Ð¶Ð´Ð°": 2523,
      "Ġ,": 2524,
      "ĠÐ³Ð¸": 2525,
      "½Ñİ": 2526,
      "Ð½ÑĮ": 2527,
      "Ġteam": 2528,
      "ĠÐ¸Ð½ÑĤÐµÑĢ": 2529,
      "Ġ199": 2530,
      "Ġche": 2531,
      "Ð¸Ð¼Ð¾": 2532,
      "Ð¾Ð¿ÐµÑĢÐ°": 2533,
      "Ġins": 2534,
      "Ð±Ð¾ÑĢ": 2535,
      "roup": 2536,
      "ĠAmeric": 2537,
      "ĠÑģÐ²Ð¾ÐµÐ¹": 2538,
      "ĠÐ¼ÐµÑģÑĤÐ¾": 2539,
      "!!": 2540,
      "ĠÐ´Ð¸Ð°": 2541,
      "ĠÐ»ÑİÐ´ÐµÐ¹": 2542,
      "ÑīÐµÐ½Ð¸Ñı": 2543,
      "Ġcount": 2544,
      "Ð²Ð°ÑİÑĤÑģÑı": 2545,
      "Ð½Ð»Ð°Ð¹Ð½": 2546,
      "ty": 2547,
      "Ð¶ÐµÐ½Ð¸Ñı": 2548,
      "ĠÑģÑĤÐ¾Ð¸ÑĤ": 2549,
      "ĠÐºÐ¾Ð½Ðº": 2550,
      "ÑĤÐµÑĢÐ¸": 2551,
      "led": 2552,
      "ĠÐ¿Ð¾ÑĤÑĢÐµ": 2553,
      "Ġart": 2554,
      "ÑĤÐ¾ÑĢÐ°": 2555,
      "ĠÐ¼Ð¸Ð½Ñĥ": 2556,
      "Ġwhile": 2557,
      "Ġhand": 2558,
      "Ġstill": 2559,
      "ww": 2560,
      "view": 2561,
      "Ð¸Ð¾Ð½Ð°": 2562,
      "ouse": 2563,
      "read": 2564,
      "Ġinter": 2565,
      "ĠIf": 2566,
      "Ð¾ÑĩÐµ": 2567,
      "ĠÑĨÐ²Ðµ": 2568,
      "Ġlead": 2569,
      "ÑĢÐµÐ½": 2570,
      "Ġdiffere": 2571,
      "ĠÐ·Ð¾": 2572,
      "ĠÐ´Ð¾Ñģ": 2573,
      "Ġrun": 2574,
      "ĠÐ¶ÐµÐ»Ð°": 2575,
      "ÑĢÐºÐ¸": 2576,
      "µÐ½ÐºÐ°": 2577,
      "ĠÐ²ÑĤÐ¾": 2578,
      "ÑģÑĤÑĥÐ¿Ð°": 2579,
      "ĠÐ¸Ð¼ÐµÐ½Ð½Ð¾": 2580,
      "ĠÑĥÑģÐ»Ñĥ": 2581,
      "ÑĢÑĮÐ": 2582,
      "ÐĿÐµ": 2583,
      "Ġthree": 2584,
      "ton": 2585,
      "ÐłÐ°": 2586,
      "Ð¼Ð¾Ð²": 2587,
      "ving": 2588,
      "Ġav": 2589,
      "ÑĤÑĥÑĢÐ°": 2590,
      "ÑĢÐ°ÑĤÑĮ": 2591,
      "ĠÑģÐ²Ð¾Ñİ": 2592,
      "µÐ´ÐµÑĢÐ°": 2593,
      "ĠÐ§ÑĤÐ¾": 2594,
      "ÑĢÐµÐ¼ÐµÐ½Ð½Ð¾": 2595,
      "ĠAn": 2596,
      "ĠCl": 2597,
      "ĠÐ¿Ð¾Ð²Ñĭ": 2598,
      "Ġ14": 2599,
      "Ġsystem": 2600,
      "ug": 2601,
      "ives": 2602,
      "ĠÐ·Ð": 2603,
      "Ġcar": 2604,
      "ĠÐŁÐ°": 2605,
      "ĠÑģÐ¸ÑĤÑĥÐ°": 2606,
      "Ð½ÐµÑĩÐ½Ð¾": 2607,
      "Ġâ": 2608,
      "Ð´Ð¾Ð¹": 2609,
      "ĠÐ½Ð°Ñĥ": 2610,
      "Ġrequ": 2611,
      "Ð½ÐµÐ³Ð¾": 2612,
      "ĠÑĪÐ¸": 2613,
      "ier": 2614,
      "the": 2615,
      "ets": 2616,
      "Ġ16": 2617,
      "cept": 2618,
      "ĠÑģÐ´ÐµÐ»Ð°ÑĤÑĮ": 2619,
      "¸ÑģÑĮ": 2620,
      "ash": 2621,
      "ric": 2622,
      "We": 2623,
      "Ġret": 2624,
      "ĠÐłÐµ": 2625,
      "ÐµÐ¹": 2626,
      "ÐŁÑĢÐ¾": 2627,
      "ĠÐ¿ÑĢÐ¸Ðµ": 2628,
      "ĠÐ¿ÑĢÐ¸Ð·Ð½Ð°": 2629,
      "ĠÐ¸Ð·Ð²Ðµ": 2630,
      "Ġperson": 2631,
      "ĠÐ³Ð": 2632,
      "ĠÑĪÐ°": 2633,
      "ÑīÐ¸Ðµ": 2634,
      "Ġused": 2635,
      "ĠÐ¾ÑĩÐµ": 2636,
      "Ġed": 2637,
      "ĠÐ½Ð°Ð¼": 2638,
      "oh": 2639,
      "ĠÐłÐ¤": 2640,
      "ÑĢÐ¸Ð°Ð½": 2641,
      "¸Ð¼Ñĥ": 2642,
      "¾ÐºÐ¾": 2643,
      "ÑĢÐ¾Ð²Ð°Ð½Ð¸Ñı": 2644,
      "ÑĩÐµÐ³Ð¾": 2645,
      "ĠÐ¿Ð¾ÑįÑĤÐ¾Ð¼Ñĥ": 2646,
      "ÑĤÐµÐ»ÑĮÐ½Ð¾Ð¹": 2647,
      "Ġ[": 2648,
      "Ð³ÑĢÑĥ": 2649,
      "ĠÐ¾Ð¿ÐµÑĢÐ°": 2650,
      "ĠÐ¼ÐµÑĤÐ¾": 2651,
      "Ġstr": 2652,
      "Ð°ÑĢ": 2653,
      "Ġbest": 2654,
      "ĠÑĤÐ°ÐºÐ¾Ð¹": 2655,
      "ĠÐ±Ð¾Ð»ÑĮÑĪÐ¾": 2656,
      "Ġchar": 2657,
      "ĠÐ½ÐµÐ¼": 2658,
      "Ġdevelop": 2659,
      "Ġsim": 2660,
      "ÑĪÐµÐ¼": 2661,
      "ÑģÑĤÐ²ÐµÐ½Ð½Ð¾Ð¹": 2662,
      "ved": 2663,
      "ittle": 2664,
      "ames": 2665,
      "Ġsomet": 2666,
      "ever": 2667,
      "ÑĤÐ¸Ð²Ð¾": 2668,
      "Ġser": 2669,
      "ĠÑģÐ»Ð¾Ð²Ð°": 2670,
      "ution": 2671,
      "ĠÑĩÐ°ÑģÑĤÐ¾": 2672,
      "ale": 2673,
      "Ġ2012": 2674,
      "Ġsl": 2675,
      "Ġprogram": 2676,
      "ÑĢÐµÐ½Ð¸Ñı": 2677,
      "akes": 2678,
      "Ġeach": 2679,
      "ĠÐ¾ÑĤÐ²ÐµÑĤ": 2680,
      "Ġhome": 2681,
      "Ġnum": 2682,
      "Ġdisc": 2683,
      "Ð´ÐµÐ»ÑĮ": 2684,
      "Ð´ÑĭÐ¹": 2685,
      "ines": 2686,
      "ĠÐ´Ð¾ÑĢÐ¾": 2687,
      "ÑĢÐ°Ð·Ñĥ": 2688,
      "uc": 2689,
      "Ġaround": 2690,
      "ĠÐºÑĢÐµÐ´Ð¸": 2691,
      "line": 2692,
      "ĠÐ·Ð°Ð²Ð¸ÑģÐ¸": 2693,
      "ĠÐ±Ð¸Ð·Ð½Ðµ": 2694,
      "ĠÑģÐµÐ¹": 2695,
      "ĠÑģÐ»ÐµÐ´ÑĥÐµÑĤ": 2696,
      "ĠÑģÐ¾ÑĤÑĢÑĥ": 2697,
      "ered": 2698,
      "Ð½ÐµÐ¼": 2699,
      "chn": 2700,
      "vern": 2701,
      "Ġtrans": 2702,
      "Ġmed": 2703,
      "Ð¿Ð¸ÑĤÐ°": 2704,
      "Ð´Ð½Ð°ÐºÐ¾": 2705,
      "ĠÐ½Ð°ÑħÐ¾Ð´Ð¸": 2706,
      ",âĢĿ": 2707,
      "Ġsame": 2708,
      "ience": 2709,
      "ÑĢÐ³Ð¾": 2710,
      "ĠÐ½Ð°Ð´": 2711,
      "ĠÑĤÑĢÐ°Ð½": 2712,
      "Ġgame": 2713,
      "ĠÐ¿ÑĢÐ¾Ð¸Ð·Ð²Ð¾Ð´": 2714,
      "Ġmod": 2715,
      "11": 2716,
      "Ð²Ð¸Ð»": 2717,
      "Ð´ÐµÐ½": 2718,
      "ÑĩÐºÐ°": 2719,
      "ĠÐĳÐµ": 2720,
      "¸Ð½Ð¾": 2721,
      "riend": 2722,
      "ween": 2723,
      "Ġlife": 2724,
      "ĠÐ¿ÑĢÐ¾Ð´Ð¾Ð»Ð": 2725,
      "ĠÐ½Ð°ÑĩÐ¸Ð½Ð°": 2726,
      "¾Ð½Ð»Ð°Ð¹Ð½": 2727,
      "Ð¾Ð½Ð»Ð°Ð¹Ð½": 2728,
      "Ð²Ð»Ð¸": 2729,
      "ĠÐºÐ¾Ð»": 2730,
      "ĠÐ¿ÑĢÑı": 2731,
      "Ð½Ð½Ð¾Ð": 2732,
      "ĠÑįÐ»ÐµÐºÑĤÑĢÐ¾": 2733,
      "ÑĩÐµÑģÐºÐ¸Ð¹": 2734,
      "ĠÐ¿Ð¾ÐºÐ°": 2735,
      "ĠÑģÐµÐ³Ð¾": 2736,
      "Ð¿ÐµÑĢÑĮ": 2737,
      "ĠÐ´Ð¾Ð»Ð¶Ð½Ñĭ": 2738,
      "ĠÐ¿ÑĢÐ¾Ð¸Ñģ": 2739,
      "Ð½Ð½Ð¾Ðµ": 2740,
      "ĠÐ·Ð°Ð½Ð¸Ð¼Ð°": 2741,
      "Ð»ÑĮÐ½Ð¾Ð": 2742,
      "ĠAs": 2743,
      "ĠÐ¾Ð±Ñĥ": 2744,
      "ÐĽÐ": 2745,
      "Ð¼ÐµÐ½ÑĤÑĭ": 2746,
      "µÑĪÑĮ": 2747,
      "ĠÑĢÐ°Ð¹Ð": 2748,
      "Ġpost": 2749,
      "ĠÐ¾ÑĤÐ»Ð¸": 2750,
      "ÑĨÐ¸Ð°Ð»ÑĮÐ½Ð¾": 2751,
      "ĠÐ¾Ð½Ð»Ð°Ð¹Ð½": 2752,
      "Ġfollow": 2753,
      "¸Ð¼ÑĥÑīÐµ": 2754,
      "ages": 2755,
      "Ð»ÑĮÐ½Ð¾Ðµ": 2756,
      "Ġ|": 2757,
      "ĠÐ¿Ð¾Ð»ÑĮÐ·Ð¾": 2758,
      "Ġfound": 2759,
      "Ð´ÑĢÐ°": 2760,
      "lease": 2761,
      "ute": 2762,
      "Ð´Ð½ÑĭÑħ": 2763,
      "__": 2764,
      "Ð´Ð°ÑĤÑĮ": 2765,
      "ÑĨÐ¸ÐµÐ¹": 2766,
      "ĠÑĢÐ°Ð±Ð¾Ñ": 2767,
      "ĠÑĢÐ°Ð±Ð¾ÑĤ": 2768,
      "Ġchild": 2769,
      "ĠÐ²Ð¾Ñ": 2770,
      "ĠÐ²Ð¾ÑĤ": 2771,
      "ĠX": 2772,
      "ness": 2773,
      "Ġcre": 2774,
      "ĠÐ¿Ð¾Ð½Ñı": 2775,
      "Ð»Ð½Ñı": 2776,
      "ÑĩÐµÐ¼": 2777,
      "oot": 2778,
      "ÑĢÐ¸ÑĤÐ¾": 2779,
      "ĠÐ»ÑĥÑĩÑĪÐµ": 2780,
      "Ġboth": 2781,
      "ÐºÑĢÐ¾": 2782,
      "Ġcur": 2783,
      "ĠÐ´ÐµÑĤÐµÐ¹": 2784,
      "orn": 2785,
      "ÑīÐ¸Ð¹": 2786,
      "It": 2787,
      "Ġmark": 2788,
      "ĠÐ°Ð²ÑĤÐ¾Ð¼Ð¾": 2789,
      "ĠÑĩÐ°ÑģÑĤÐ¸": 2790,
      "Ð»Ð¾Ð¶Ð¸": 2791,
      "¶ÐµÐ½": 2792,
      "Ġ17": 2793,
      "ÑģÑĤÐ²Ð¸": 2794,
      "ĠÑĦÑĥÐ½Ðº": 2795,
      "iet": 2796,
      "ĠFor": 2797,
      "ists": 2798,
      "ĠÑĢÐ°Ð·Ð¼Ðµ": 2799,
      "ĠÐ½Ð°ÑģÑĤÐ¾Ñı": 2800,
      "ple": 2801,
      "ÑĢÐº": 2802,
      "ef": 2803,
      "¾Ð³ÑĢÐ°": 2804,
      "¾Ñį": 2805,
      "ĠÐ¾Ð´Ð½Ð¾": 2806,
      "Ġconf": 2807,
      "Ġreal": 2808,
      "Ð¸Ð·Ð": 2809,
      "ĠÐ¿ÑĢÐµÐ´Ð¾ÑģÑĤÐ°": 2810,
      "ĠÑģÑĭ": 2811,
      "Ġdet": 2812,
      "ĠÑģÐµÐ³Ð¾Ð´Ð½Ñı": 2813,
      "ĠÑĥÑĩÐµ": 2814,
      "ĠÑĢÑĥÐºÐ¾": 2815,
      "ĠÐ³Ð¾Ð´": 2816,
      "ĠÐ»Ð¸ÑĪÑĮ": 2817,
      "Ġref": 2818,
      "unity": 2819,
      "Ð´Ð°ÐµÑĤ": 2820,
      "Ġvis": 2821,
      "Ġbook": 2822,
      "Ġsign": 2823,
      "ÑĢÐ½ÑĭÐµ": 2824,
      "arm": 2825,
      "ÑĪÐ°Ñı": 2826,
      "ĠÐ±Ð¸": 2827,
      "ĠÐ²Ð¾Ð": 2828,
      "ĠBl": 2829,
      "ÑĤÐ¸ÑĩÐµÑģÐºÐ¸": 2830,
      "ĠÑĪÐºÐ¾": 2831,
      "Ð½ÑĤÐ°": 2832,
      "ĠÑĦÐ¾ÑĢÐ¼": 2833,
      "ÐĿÐ¾": 2834,
      "ĠÑįÐºÐ¾Ð½Ð¾Ð¼Ð¸": 2835,
      "ÑĪÐºÐ°": 2836,
      "³Ð¾ÑĤÐ¾Ð²": 2837,
      "µÐ½Ð½Ð¾ÑģÑĤÐ¸": 2838,
      "ĠÐ½ÐµÐºÐ¾ÑĤÐ¾ÑĢÑĭ": 2839,
      "ÑĪÑĥ": 2840,
      "This": 2841,
      "Ġbetween": 2842,
      "ÑģÑĤÐ¾Ð²": 2843,
      "ĠAd": 2844,
      "ĠÐ·Ð´Ð¾": 2845,
      "ox": 2846,
      "ĠÑģÑĢÐµÐ´ÑģÑĤÐ²Ð°": 2847,
      "ĠÐ¿ÑĢÐ¾ÑĦÐµ": 2848,
      "ĠÐ¾ÑģÑĥÑīÐµ": 2849,
      "Ġcare": 2850,
      "Ġfr": 2851,
      "ĠÐ´Ð¾Ð»Ð¶ÐµÐ½": 2852,
      "der": 2853,
      "Ġfew": 2854,
      "Ġexp": 2855,
      "Ġ13": 2856,
      "ĠÐ·Ð´ÐµÑģÑĮ": 2857,
      "ik": 2858,
      "ÑģÑĤÐ²ÐµÐ½Ð½ÑĭÑħ": 2859,
      "Ð¼ÐµÐ½ÑĤÐ¾Ð²": 2860,
      "ÑĤÐµÐ»ÑĮÐ½Ð¾Ð³Ð¾": 2861,
      "ĠÐ±ÐµÑģÐ¿Ð»Ð°": 2862,
      "ĠÑĩÑĥÐ²": 2863,
      "ĠÐ¾ÑĤÐ²Ðµ": 2864,
      "ÑĢÐµÐ¹": 2865,
      "µÐ½ÑĤÑĢÐ°": 2866,
      "Ð²Ð°Ð½Ð¸Ð¸": 2867,
      "ĠÐ²Ð°ÑĢÐ¸Ð°Ð½": 2868,
      "ĠÐ´Ð¸Ñģ": 2869,
      "Ð¼Ð¸Ð½Ð¸": 2870,
      "ÑİÑīÐµÐ¹": 2871,
      "ÑģÐºÐ¸": 2872,
      "ĠThey": 2873,
      "uth": 2874,
      "ĠÐºÐ¾Ð¼Ð°": 2875,
      "ĠÐ¾Ð±ÑĢÐ°Ð·Ð¾Ð¼": 2876,
      "ĠÐ´Ð¾Ð³Ð¾Ð²Ð¾": 2877,
      "ĠÐºÐ¾Ð¼Ð¿Ð»ÐµÐº": 2878,
      "¸ÑĤÐ°": 2879,
      "ĠÑĤÑĢÐ¸": 2880,
      "ÑİÑīÐ¸Ð¼": 2881,
      "Ð´ÐµÑĢÐ¶Ð¸": 2882,
      "Ġ'": 2883,
      "ĠÐ¾ÑĢÐ³Ð°Ð½Ð¸Ð·": 2884,
      "Ġsupport": 2885,
      "ĠÐľÐ¾ÑģÐº": 2886,
      "cent": 2887,
      "ĠÐºÐ¾ÑĤÐ¾ÑĢÐ¾Ð¹": 2888,
      "ĠLe": 2889,
      "ĠÐ¼ÐµÐ´Ð¸": 2890,
      "ÑĪÐ¸Ð½": 2891,
      "ient": 2892,
      "Ð¼ÐµÐ½Ñı": 2893,
      "ĠÐ¶Ð°": 2894,
      "ĠÐ¸Ð·Ð¼ÐµÐ½Ð": 2895,
      "Ð½ÐµÑĪ": 2896,
      "ĠÐ¿Ð¾Ð»ÑĥÑĩÐ°": 2897,
      "ĠÐľÐµ": 2898,
      "ĠÑĢÑĥÐ±Ð»ÐµÐ¹": 2899,
      "Ġbusiness": 2900,
      "ĠÑģÑĤÑĢÐ¾Ð¸": 2901,
      "Ġ100": 2902,
      "ĠÐ´Ð¾Ð±Ð°": 2903,
      "ÐļÐ°": 2904,
      "ºÐ°": 2905,
      "ĠÐ¿ÑĢÐ¾Ð¸Ð·Ð²Ð¾Ð´Ð¸": 2906,
      "ÑĢÑĥÐµÑĤ": 2907,
      "ÑĤÐµÐ»ÑĮÐ½ÑĭÐ¹": 2908,
      "nce": 2909,
      "Ġlittle": 2910,
      "µÐ½Ð½ÑĭÐ¼": 2911,
      "con": 2912,
      "ÑĤÐ²ÐµÑĢÐ¶": 2913,
      "min": 2914,
      "Ð½Ð°Ñħ": 2915,
      "ĠÑģÐ¸ÑģÑĤÐµÐ¼Ñĭ": 2916,
      "ense": 2917,
      "Ð²Ð½ÑĭÐµ": 2918,
      "ĠÐ²Ð¾Ð·Ð¼Ð¾Ð¶Ð½Ð¾ÑģÑĤÑĮ": 2919,
      "ĠÑģÐµÐ¹ÑĩÐ°Ñģ": 2920,
      "Ð¿ÑĥÑģÐºÐ°": 2921,
      "ĠÑĢÐµÐºÐ¾Ð¼ÐµÐ½Ð": 2922,
      "ield": 2923,
      "ĠÐ²Ð¾Ð·ÑĢÐ°": 2924,
      "ÑģÑĤÐ½Ð¾": 2925,
      "¾ÑĨÐ": 2926,
      "Ð·Ð¸Ð½Ð¾": 2927,
      "Ġrep": 2928,
      "ÑĤÐ¸Ð¸": 2929,
      "ĠÑĦÐ¸Ð½Ð°": 2930,
      "ĠÑĤÐ°Ð¼": 2931,
      "ĠÑĥÑĢÐ¾Ð²Ð": 2932,
      "ĠÑĢÐµÐ³Ð¸Ð": 2933,
      "ĠÑģÐ¸Ð¼": 2934,
      "//": 2935,
      "Ð½Ð¾Ð²Ð°": 2936,
      "ĠÑģÐ²ÑıÐ·Ð°": 2937,
      "Ġreport": 2938,
      "ĠÐ¾ÑģÑĥÑīÐµÑģÑĤ": 2939,
      "Ġschool": 2940,
      "ĠFr": 2941,
      "ĠÑĤÐµÑĢÑĢÐ¸ÑĤÐ¾": 2942,
      "ĠÐ²ÑĭÑĢÐ°": 2943,
      "Ġprovid": 2944,
      "ĠÑĢÐ¾Ð´Ð¸": 2945,
      "ĠÐºÐ½Ð¸Ð": 2946,
      "Ġcomple": 2947,
      "rent": 2948,
      "Ġ25": 2949,
      "ying": 2950,
      "Ġgot": 2951,
      "Ġfil": 2952,
      "ĠÐ¸ÑģÑģÐ»ÐµÐ´Ð¾": 2953,
      "ĠÐ¼Ð¾Ð¶ÐµÑĤÐµ": 2954,
      "ention": 2955,
      "Ġadv": 2956,
      "ĠÐ²Ð¸Ð´ÐµÐ¾": 2957,
      "ĠÐ²Ð¼Ðµ": 2958,
      "Ð¶ÐµÐ½Ð¸Ðµ": 2959,
      "ĠÐľÑĭ": 2960,
      "ĠÑģÑĥÐ¼": 2961,
      "Ġhapp": 2962,
      "Ð¾ÑĨÐ": 2963,
      "bers": 2964,
      "ĠÑĤÑĢÐµÐ±Ñĥ": 2965,
      "ĠÐ»ÑİÐ±Ð¸": 2966,
      "Ð´Ð½ÑĭÐµ": 2967,
      "Ð½Ð¸ÐµÐ¼": 2968,
      "Ð¿ÑĥÐ»Ñı": 2969,
      "ows": 2970,
      "Ð½Ð°Ð¼Ð¸": 2971,
      "ÑĢÐ¸ÑĤÐµ": 2972,
      "ĠÐ¿Ð¾ÑģÑĤÐ¾Ñı": 2973,
      "ÑģÑĤÐ²ÐµÐ½Ð½Ð¾Ð³Ð¾": 2974,
      "ÑīÑĥ": 2975,
      "Ð»Ð»Ð°": 2976,
      "Ð¸Ð¼ÑĥÑīÐµ": 2977,
      "ize": 2978,
      "ĠÑĢÐµÐ±Ð": 2979,
      "ĠÑģÐ¾Ð´ÐµÑĢÐ¶Ð°": 2980,
      "Ġsecond": 2981,
      "ĠÑģÐµÐ¼": 2982,
      "ĠÐ½Ð°Ð·": 2983,
      "ĠÑĨÐ¸": 2984,
      "ĠÐ´ÑĢÑĥÐ³Ð¸Ðµ": 2985,
      "ÑĢÐ¶": 2986,
      "ĠÐ¢Ð°Ðº": 2987,
      "¸Ð½Ð²Ð": 2988,
      "ĠÐ½ÐµÐ": 2989,
      "ĠÐ¾ÑĦÐ¸": 2990,
      "ĠÐĶÐµ": 2991,
      "ÑĢÐ½ÑĭÐ¹": 2992,
      "Ġlot": 2993,
      "Ġdesign": 2994,
      "ÑģÑĤÐ¾Ð¹": 2995,
      "ĠÐ´Ð»Ð¸": 2996,
      "¾ÑĤÐ¾": 2997,
      "Wh": 2998,
      "ĠÐ·Ðµ": 2999,
      "ĠÐ´Ð²ÑĥÑħ": 3000,
      "ĠÐ¿Ð¾Ð¼Ð¾ÑīÑĮÑİ": 3001,
      "Ð±Ð¾Ð»ÑĮ": 3002,
      "Ð²Ð°Ð½Ð¸Ð¹": 3003,
      "ÑģÑĤÐ²Ð¸Ð¸": 3004,
      "ĠÐ°Ð²ÑĤÐ¾Ð¼Ð¾Ð±Ð¸": 3005,
      "¾ÐºÐ°Ð·Ð°": 3006,
      "Ġmonth": 3007,
      "ĠÐ¢Ðµ": 3008,
      "Ð¸Ð½Ð²Ð": 3009,
      "Ġ--": 3010,
      "ÑĦÐ°": 3011,
      "ĠÐ¿ÑĢÐ¾ÑĪ": 3012,
      "ĠÑĤÑı": 3013,
      "Ð¾ÐºÐ¾": 3014,
      "ĠÐ¾Ð±ÑĬÐµÐº": 3015,
      "ves": 3016,
      "Ð²Ð½ÑĭÑħ": 3017,
      "Ġtop": 3018,
      "ĠÐ½ÐµÐ¹": 3019,
      "ĠÐ·Ð°ÐºÐ¾": 3020,
      "ÐºÑģ": 3021,
      "¾ÑĤÐµ": 3022,
      "ÑİÑīÐµÐ³Ð¾": 3023,
      "ĠÐŀÐ±": 3024,
      "Ð¶Ð´Ðµ": 3025,
      "ĠÑģÐ²Ð¾Ð¸Ñħ": 3026,
      "ĠÐ´Ð¾ÑģÑĤÐ°ÑĤÐ¾ÑĩÐ½Ð¾": 3027,
      "ĠÑĢÐ¾ÑģÑģÐ¸Ð¹": 3028,
      "ĠÐ±ÐµÐ·Ð¾": 3029,
      "Ð¾ÐºÐ°Ð·Ð°": 3030,
      "Ð²ÑĢÐ¾": 3031,
      "ÐĶÐ»Ñı": 3032,
      "Ð¸Ð·Ð½ÑĮ": 3033,
      "Ġgl": 3034,
      "ized": 3035,
      "ÑĤÐµÐ»ÑĮÑģÑĤÐ²Ð¾": 3036,
      "ÐºÑĥÑģ": 3037,
      "ĠÐĿÐ¸": 3038,
      "ĠÐ¾ÐºÐ°Ð·Ð°": 3039,
      "ÑģÑģÐµ": 3040,
      "Ð»Ð¾Ð¶ÐµÐ½Ð¸Ñı": 3041,
      "Ð³Ð¸ÑģÑĤÑĢÐ°": 3042,
      "ĠÐ¿ÑĢÐµÐ¿Ð°ÑĢÐ°": 3043,
      "els": 3044,
      "ĠÐ¾Ð±ÑĬÑı": 3045,
      "Ġlar": 3046,
      "ÑīÐµÐ½Ð¸Ðµ": 3047,
      "ÑĮÐµ": 3048,
      "ital": 3049,
      "ĠÐ°ÑĢ": 3050,
      "Ġplace": 3051,
      "Ġ50": 3052,
      "thing": 3053,
      "¾Ð±ÑĢÐµ": 3054,
      "ĠÐ°Ð½": 3055,
      "ways": 3056,
      "ĠÑĥÐºÐ°Ð·Ð°": 3057,
      "illion": 3058,
      "cer": 3059,
      "ĠÐ½Ð°Ð´Ð¾": 3060,
      "gg": 3061,
      "ished": 3062,
      "ired": 3063,
      "ĠÐĳÐ°": 3064,
      "Ð²ÐºÐ°": 3065,
      "ĠÐ¿ÑĢÐµÐ´ÑģÑĤÐ°Ð²Ð¸": 3066,
      "ok": 3067,
      "ĠÐ¸Ð³ÑĢÐ¾": 3068,
      "ology": 3069,
      "ĠÐ²Ð¸Ð´Ðµ": 3070,
      "ĠSe": 3071,
      "Ġgener": 3072,
      "Ð»Ð¸Ð·Ð¸": 3073,
      "Ġform": 3074,
      "ÑĤÐ¸Ð»": 3075,
      "ody": 3076,
      "Ġput": 3077,
      "ÑĩÐ¸Ñģ": 3078,
      "ÑĢÐ¸ÑĤÑĮ": 3079,
      "Ġter": 3080,
      "ants": 3081,
      "ĠÐºÐ¾ÑĢÐ¾": 3082,
      "istr": 3083,
      "ĠÐĺÐ": 3084,
      "Ð°Ð»": 3085,
      "Ð¿Ð¾Ð»Ð½Ñı": 3086,
      "ÑĤÐµÐ½": 3087,
      "ĠÑĥÑĩÐ¸": 3088,
      "Ġthings": 3089,
      "ĠÐ®": 3090,
      "ER": 3091,
      "Ġmet": 3092,
      "ĠÑĤÑĢÐµÐ±Ð¾": 3093,
      "Ġcr": 3094,
      "ĠÐ¼Ñı": 3095,
      "¸Ñİ": 3096,
      "Ġfact": 3097,
      "ĠÐ¿ÑĢÐ¸Ð½Ð¸Ð¼Ð°": 3098,
      "Ġopen": 3099,
      "uss": 3100,
      "ger": 3101,
      "µÐ½Ð½Ð°Ñı": 3102,
      "ĠÑĤÐ¾Ð¶Ðµ": 3103,
      "Ġcle": 3104,
      "ÑĥÐ": 3105,
      "ĠÑģÐ¾Ð±Ð¾Ð¹": 3106,
      "Ð²Ð°Ð»Ð°": 3107,
      "ĠÐŁÐ¾ÑģÐ»Ðµ": 3108,
      "Ġdifferent": 3109,
      "Ð½Ð¸Ñħ": 3110,
      "ÑĩÐ½Ð°Ñı": 3111,
      "ÐºÐ»Ð¾": 3112,
      "Ġduring": 3113,
      "Ġcome": 3114,
      "ÑĢÐ¾Ð¼Ðµ": 3115,
      "ÑĢÐ°Ð¼Ð¸": 3116,
      "ĠÐ³Ð¾ÑĢÐ¾Ð´Ð°": 3117,
      "Ð¡Ð¾": 3118,
      "15": 3119,
      "Ġanother": 3120,
      "Ġproduct": 3121,
      "Ð¸Ð½Ð¾": 3122,
      "ĠÐ¿ÑĢÐ¾Ð²Ð¾Ð´Ð¸": 3123,
      "Ġweek": 3124,
      "µÑĳ": 3125,
      "Ġnext": 3126,
      "ĠÑģÐ»Ð°": 3127,
      "ĠÐ³Ð¾ÑĤÐ¾": 3128,
      "ision": 3129,
      "Ð¶Ð½ÑĭÑħ": 3130,
      "ĠÑįÑĤÐ¸Ñħ": 3131,
      "ÑħÐ¾Ð´Ð°": 3132,
      "Ġiss": 3133,
      "ÑĢÑĮÐµ": 3134,
      "¾Ð³": 3135,
      "¸Ð½Ñĭ": 3136,
      "ÑīÐµÐµ": 3137,
      "Ġbig": 3138,
      "Ð¿ÑĥÐ±Ð»Ð¸": 3139,
      "ĠÐ¶Ð¸Ð²Ð¾": 3140,
      "Ġlove": 3141,
      "ĠÐ¸ÑģÐ¿Ð¾Ð»ÑĮÐ·Ð¾Ð²Ð°ÑĤÑĮ": 3142,
      "ĠÐ¸Ð½Ð²Ð": 3143,
      "ÑĤÐ°Ñħ": 3144,
      "Ġsk": 3145,
      "Ð²Ð¾ÑĢ": 3146,
      "ĠÐ¿Ð°ÑĢ": 3147,
      "ĠPl": 3148,
      "Ġlist": 3149,
      "ĠÐ¾ÐºÐ¾": 3150,
      "ĠÐ¦Ð": 3151,
      "ĠÑıÐ·Ñĭ": 3152,
      "ĠÐ²Ð½Ðµ": 3153,
      "Ġcontin": 3154,
      "Ġob": 3155,
      "Ð¿Ð»Ð¸": 3156,
      "200": 3157,
      "Ġint": 3158,
      "less": 3159,
      "Ġagainst": 3160,
      "ÑĢÐ°Ð±Ð¾ÑĤÐ°": 3161,
      "ĠÐŁÐµ": 3162,
      "ÑģÐ¸ÑĤÑĮ": 3163,
      "½ÑĥÑĤÑĮ": 3164,
      "ĠQ": 3165,
      "Ġhead": 3166,
      "Ġ2013": 3167,
      "Ð»Ð¾Ð³Ð¸Ð¸": 3168,
      "¾ÑįÑĤÐ¾Ð¼Ñĥ": 3169,
      "·Ñĭ": 3170,
      "ĠÐ¾ÑĦÐ¾": 3171,
      "Ġquest": 3172,
      "ĠÐ¿Ð¾ÑĤÐ¾Ð¼Ñĥ": 3173,
      "Ð»ÐµÑĦÐ": 3174,
      "Ġpass": 3175,
      "Ġfull": 3176,
      "ross": 3177,
      "ĠÐ½Ð°Ð·Ñĭ": 3178,
      "Ð±Ð»Ñİ": 3179,
      "reen": 3180,
      "ĠÐ½Ð°Ð»Ð¸ÑĩÐ": 3181,
      "Ġtri": 3182,
      "ĠÐ¾ÑĨÐ": 3183,
      "Ġpublic": 3184,
      "ĠÑĤÐ°ÐºÐ¸Ðµ": 3185,
      "ata": 3186,
      "Ġmust": 3187,
      "ĠÐ¾ÑĢÐ³Ð°Ð½Ð¸Ð·Ð°": 3188,
      "Ġfun": 3189,
      "Ð½Ð¾Ð²Ð": 3190,
      "ĠÑģÑĤÐ¾ÑĢÐ¾Ð½Ñĭ": 3191,
      "Ġpur": 3192,
      "Ġsince": 3193,
      "ĠÑĦÐ¸Ð»ÑĮ": 3194,
      "Ġplan": 3195,
      "ĠÐºÐ¾Ð»Ð¸ÑĩÐµÑģÑĤÐ²Ð¾": 3196,
      "Ġappro": 3197,
      "Ġcent": 3198,
      "ÑĢÑĥÑİ": 3199,
      "Ġgroup": 3200,
      "ĠÐ¿ÑĢÐ¾ÑĤÐ¸Ð²Ð¾": 3201,
      "ĠShe": 3202,
      "ĠBe": 3203,
      "ĠÐºÐ»Ð¸Ð": 3204,
      "ĠÐ¶Ð¸Ð·Ð½ÑĮ": 3205,
      "Ð¢Ð°": 3206,
      "Ð»ÑĮÑı": 3207,
      "ĠÐ³Ñĥ": 3208,
      "Ġfree": 3209,
      "Ð»Ð¸Ð·Ð°": 3210,
      "ĠÑĢÐ°Ð·Ð²Ð¸ÑĤÐ¸Ñı": 3211,
      "ÑģÑĤÑĢÐ¾Ð": 3212,
      "ailable": 3213,
      "Ġsomething": 3214,
      "°Ð¿": 3215,
      "ÑĤÐµÐ»ÑĮÐ½Ð¾ÑģÑĤÑĮ": 3216,
      "Ġinterest": 3217,
      "Ġext": 3218,
      "ĠÐŀÐ½Ð¸": 3219,
      "ĠÐ¸Ð½Ð¾": 3220,
      "ĠÐ´Ð¾Ð¿Ð¾Ð»Ð½Ð¸": 3221,
      "ĠÐ¾ÑĤÐºÐ°": 3222,
      "ĠÑĤÐµÑĩÐµÐ½Ð¸Ðµ": 3223,
      "ĠÑģÐ¿ÑĢÐ°": 3224,
      "Ġwin": 3225,
      "atur": 3226,
      "ĠÐ´Ð¾Ð±": 3227,
      "Ð»Ð¸Ð¹": 3228,
      "ĠÐ»Ð¸Ð±Ð¾": 3229,
      "ĠÐ´ÐµÑĢÐµ": 3230,
      "Ð½ÐºÐµ": 3231,
      "ĠÐŀÐ´Ð½Ð°ÐºÐ¾": 3232,
      "ĠÐ¿ÑĢÐµÐ´Ð»Ð°Ð³Ð°": 3233,
      "be": 3234,
      "Ð´ÐµÑĤÑĮ": 3235,
      "ĠÑģÑĤÑĥ": 3236,
      "ĠÐºÐ²Ð°ÑĢÑĤÐ¸": 3237,
      "ĠAll": 3238,
      "ĠÑģÐ¿Ð¸": 3239,
      "Ð¼Ð¾ÑĤÑĢÐµÑĤÑĮ": 3240,
      "µÐ¼Ð¾": 3241,
      "iversity": 3242,
      "ĠÑģÐ¿ÐµÑĨÐ¸Ð°Ð»Ð¸": 3243,
      "ĠÐ¶ÐµÐ½Ñī": 3244,
      "aj": 3245,
      "ĠPh": 3246,
      "ĠÐļÑĥ": 3247,
      "ature": 3248,
      "ĠÐ¿Ð¾Ð½Ð¸Ð¼Ð°": 3249,
      "ÑĩÐµÑģÐºÐ¾Ðµ": 3250,
      "Ð»ÑĮÐ½ÑĥÑİ": 3251,
      "ĠÐĵÐ¾": 3252,
      "rist": 3253,
      "Ġpartic": 3254,
      "Ġinf": 3255,
      "ĠÐºÑĥÐ»ÑĮ": 3256,
      "ĠÐ½Ð¸Ð": 3257,
      "ĠÑģÑĤÑĢÐµ": 3258,
      "µÐ½Ð½Ð¾Ð": 3259,
      "ĠÐ²Ð¾Ð¹": 3260,
      "ÑĩÐµÐ¼Ñĥ": 3261,
      "ĠÐ²Ð¾Ð»Ð¾": 3262,
      "ĠÑĤÐ°ÐºÐ¸Ñħ": 3263,
      "ĠÑĩÐµÑĤ": 3264,
      "arn": 3265,
      "ĠÐ¿Ð¾Ð»ÑĥÑĩÐ¸ÑĤÑĮ": 3266,
      "Ġbetter": 3267,
      "oad": 3268,
      "ÑĦÐ¸ÐºÐ°": 3269,
      "ĠÑĤÑĭÑģÑı": 3270,
      "Ġnever": 3271,
      "µÐ½Ð½Ð¾Ðµ": 3272,
      "Ġeas": 3273,
      "att": 3274,
      "ĠÐ¿ÑĢÐµÐºÑĢÐ°": 3275,
      "ĠÐ²ÑģÐµÐ¼": 3276,
      "ĠÐ»ÑİÐ´Ð¸": 3277,
      "ÑĪÐµÐ»": 3278,
      "Ġdirect": 3279,
      "ĠÑĥÐ´Ð¾": 3280,
      "oard": 3281,
      "ÐĴÐ¾": 3282,
      "Ð¾Ð³ÑĢÐ°": 3283,
      "Ġtra": 3284,
      "Ð½ÐµÑĨ": 3285,
      "ĠÐ¿ÑĢÐµÐ´Ñĥ": 3286,
      "¾ÑĢÑĥ": 3287,
      "ĠÐ¿ÑĢÐ¸Ð¼ÐµÐ½Ð": 3288,
      "ample": 3289,
      "µÐ½ÑĤÐ¾Ð²": 3290,
      "ÑģÑģÐ¸Ð¾Ð½Ð°": 3291,
      "ĠÐ¼ÐµÑģÑĤÐ°": 3292,
      "ĠZ": 3293,
      "Ġresp": 3294,
      "ĠÐ½ÐµÐ·Ð°": 3295,
      "ĠÐ¿ÑĢÐ¸Ð¾Ð±ÑĢÐµ": 3296,
      "ÑģÐ¼Ð¾ÑĤ": 3297,
      "Ð¸Ð±": 3298,
      "ÑĩÐµÐ¹": 3299,
      "ĠÑĤÐµÑħÐ½Ð¾": 3300,
      "Ð»ÐºÐ°": 3301,
      "ĠÐ¿ÑĢÐµÐ´Ð¿Ð¾": 3302,
      "ÑĢÐ¾Ð²Ð°Ð½Ð¸Ðµ": 3303,
      "ĠÐĲÐ»ÐµÐº": 3304,
      "µÑģÑĤÐ¸": 3305,
      "Ġfriend": 3306,
      "ĠÐ¾Ð³ÑĢÐ°": 3307,
      "ĠÐ²Ð½Ð¸Ð¼Ð°Ð½Ð¸Ðµ": 3308,
      "Ð´ÐºÐ¸": 3309,
      "Ġincluding": 3310,
      "ically": 3311,
      "ÑĢÐ°Ð¸": 3312,
      "Ð§ÑĤÐ¾": 3313,
      "ĠÑĩÐµÐ³Ð¾": 3314,
      "Ġsays": 3315,
      "ĠÑĩÐ°ÑģÑĤÑĮ": 3316,
      "Ġprof": 3317,
      "Ġfour": 3318,
      "ÐĵÐ": 3319,
      "ĠÑĦÐ¸Ð½Ð°Ð": 3320,
      "ĠÑĦÐ¸Ð½Ð°Ð½": 3321,
      "ĠÐ´Ð²Ðµ": 3322,
      "ÑĢÐ¿Ð": 3323,
      "Ġ24": 3324,
      "ĠÐ¿Ð°ÑĢÐ°": 3325,
      "ĠÐ¾Ð¿ÑĢÐµÐ´ÐµÐ»Ð": 3326,
      "Ġrest": 3327,
      "ÑĤÐ°Ðº": 3328,
      "Ð²Ð¸Ð³Ð°": 3329,
      "aining": 3330,
      "ĠÐ¿ÑĢÐ¾ÑĨÐµÑģÑģ": 3331,
      "son": 3332,
      "ÑıÑħ": 3333,
      "ĠÐ·ÐµÐ¼": 3334,
      "ÑĢÑĥÐº": 3335,
      "Ġmov": 3336,
      "ared": 3337,
      "Ġstate": 3338,
      "Ġpri": 3339,
      "ĠÐ½Ð°Ð·Ð½Ð°": 3340,
      "gy": 3341,
      "Ð´ÑĥÑ": 3342,
      "Ð´ÑĥÑĤ": 3343,
      "ĠÑħÐ¾ÑĤ": 3344,
      "ĠÐ±ÑĭÑģÑĤÑĢÐ¾": 3345,
      "ism": 3346,
      "Ġ/": 3347,
      "Ð½Ð¸ÑĨÐ°": 3348,
      "ional": 3349,
      "ÐĴÑĭ": 3350,
      "Ħĸ": 3351,
      "ĠÑģÑĢÐ°Ð·Ñĥ": 3352,
      "Ġkeep": 3353,
      "Ð»ÐµÐ·Ð": 3354,
      "ĠÑħÐ¾ÑĢÐ¾ÑĪÐ¾": 3355,
      "ĠÐ½Ð¾ÑĢÐ¼Ð°": 3356,
      "Ð»ÑĭÑħ": 3357,
      "ĠÐ¾Ð´Ð½Ð¾Ð¹": 3358,
      "ÑīÐµÐ³Ð¾": 3359,
      "ĠÑģÐ²Ð¾ÐµÐ³Ð¾": 3360,
      "ĠTe": 3361,
      "Ġfeel": 3362,
      "ĠÐºÐ°Ð¶Ð´ÑĭÐ¹": 3363,
      "ttp": 3364,
      "Ġstand": 3365,
      "'m": 3366,
      "ĠÐºÐ¾Ð½ÑĤÑĢÐ¾": 3367,
      "Ð»Ð¾Ð¶ÐµÐ½Ð¸Ðµ": 3368,
      "ÑĤÐ¸ÑĤÐµ": 3369,
      "ÑĢÐ°Ñħ": 3370,
      "iving": 3371,
      "ĠÐ´ÐµÐ²Ñĥ": 3372,
      "Ð¼ÐµÑĢÐ¸": 3373,
      "ĠÑĥÑģÑĤÐ°Ð½Ð¾Ð²": 3374,
      "ĠÐ´Ð¾ÑģÑĤÐ¸Ð": 3375,
      "ott": 3376,
      "ĠÐ´ÐµÐ»Ð°ÑĤÑĮ": 3377,
      "ĠIs": 3378,
      "ĠÑģÐ½Ð¸Ð": 3379,
      "Ð½Ð½Ð¾Ð¼": 3380,
      "ĠÐ¾Ð¿Ñĭ": 3381,
      "Ð¸Ð·Ð¾": 3382,
      "³Ðµ": 3383,
      "Ġbro": 3384,
      "ĠÑĢÑı": 3385,
      "ĠÐ°Ð²ÑĤÐ¾Ð¼Ð°": 3386,
      "Ð°Ð¿": 3387,
      "'re": 3388,
      "Ġcor": 3389,
      "ĠÐºÐ¾Ð½ÑĨÐµ": 3390,
      "ÑĢÑĥÐ´Ð¾": 3391,
      "ÑģÑĤÑĢÐ¸": 3392,
      "ĠÐºÐ°ÑĩÐµÑģÑĤÐ²Ðµ": 3393,
      "ĠÐ´Ð½ÐµÐ¹": 3394,
      "Ġask": 3395,
      "ĠÐ¿Ñĭ": 3396,
      "Ġdel": 3397,
      "ĠÐ´ÐµÐ»Ð¾": 3398,
      "ĠÐ·Ð°Ð½Ñı": 3399,
      "Ġimport": 3400,
      "ering": 3401,
      "ĠÐĺÐ·": 3402,
      "Ġwithout": 3403,
      "ract": 3404,
      "Ð¾Ð³": 3405,
      "ĠÐ²ÑģÑĳ": 3406,
      "ÑĤÐ°Ð¼": 3407,
      "¾Ð¶Ð¸": 3408,
      "Ġrece": 3409,
      "Ġhard": 3410,
      "Ð½Ð½ÑĥÑİ": 3411,
      "ĠÐºÐ¾ÑĤÐ¾ÑĢÐ¾Ð³Ð¾": 3412,
      "Ġprocess": 3413,
      "Ð²ÐµÑģÑĤÐ¸": 3414,
      "ĠÐ²Ð¾Ð¿ÑĢÐ¾Ñģ": 3415,
      "Ġposs": 3416,
      "Ġlaw": 3417,
      "ĠÐ¿Ð¾Ð±Ðµ": 3418,
      "ĠÐ¿Ð¾Ð¼ÐµÑīÐ": 3419,
      "ĠCol": 3420,
      "Ð¸Ð·Ð¸": 3421,
      "Ġopp": 3422,
      "uck": 3423,
      "ÐºÑĤÐ¾ÑĢ": 3424,
      "¶Ð¸": 3425,
      "Ð½Ð°ÑĩÐ°": 3426,
      "Ð»Ð°Ð": 3427,
      "ĠÑģÐ¾ÑĤÑĢÑĥÐ´Ð½Ð¸": 3428,
      "ĠÐ¾Ð³": 3429,
      "ĠÑģÐ¿Ð°": 3430,
      "ÑĳÑ": 3431,
      "ĠÐ½ÐµÐ±Ð¾Ð»ÑĮ": 3432,
      "ÑĳÑĤ": 3433,
      "Ð²Ð°Ð½Ð¸ÐµÐ¼": 3434,
      "ĠÐ°Ð»": 3435,
      "Ġresult": 3436,
      "Ġproble": 3437,
      "ÑĤÐ¸ÐºÐ¸": 3438,
      "Ð»Ð½": 3439,
      "Ġseem": 3440,
      "Ġsmall": 3441,
      "ĠÐ´Ð°Ð»ÑĮ": 3442,
      "ÑĢÐºÐ¾": 3443,
      "Ġ2011": 3444,
      "Ð´ÐµÑĢÐ¶": 3445,
      "ĠÑĤÐµÐ»ÐµÑĦÐ": 3446,
      "ÑģÐµÐ¼": 3447,
      "ird": 3448,
      "ÑģÑĤÐµÑĢ": 3449,
      "Ġtechn": 3450,
      "ĠThere": 3451,
      "ĠEx": 3452,
      "Ð²Ð°ÑĢÐ¸": 3453,
      "Ġmus": 3454,
      "ĠÑĥÐ³Ð¾": 3455,
      "ately": 3456,
      "Ġwom": 3457,
      "://": 3458,
      "vernment": 3459,
      "oney": 3460,
      "Ð»ÑĮÐºÑĥ": 3461,
      "18": 3462,
      "ĠÐ´ÐµÐ½ÑĮÐ³Ð¸": 3463,
      "Ġavailable": 3464,
      "ĠÐ¿Ð»Ð¾ÑīÐ°": 3465,
      "Ð¿ÑĥÑģÑĤÐ¸": 3466,
      "ĠÑįÐ»Ðµ": 3467,
      "Ð¸Ð±Ð¾Ð»ÐµÐµ": 3468,
      "Ġold": 3469,
      "Ġwr": 3470,
      "ÑģÐºÐ¸Ð¼": 3471,
      "ĠÐ³Ð»Ñĥ": 3472,
      "Ð»Ð¸Ñ": 3473,
      "Ð»Ð¸ÑĤ": 3474,
      "ÑĤÐºÑĥ": 3475,
      "ÑģÑĤÐ²ÑĥÑİÑĤ": 3476,
      "ĠÐ³Ð¾ÑĢÐ¾Ð´": 3477,
      "ĠÐ¿Ð¾Ð¿ÑĥÐ»Ñı": 3478,
      "ĠÐ¼ÐµÐ½Ð": 3479,
      "aint": 3480,
      "ĠÑģÑĢÐµÐ´ÑģÑĤÐ²": 3481,
      "Ð¼Ð¸Ð½Ð¸ÑģÑĤÑĢÐ°": 3482,
      "Ð²Ð¾Ð´Ñı": 3483,
      "ĠÐ´ÐµÐ½Ðµ": 3484,
      "ĠÑĥÐ½Ð¸": 3485,
      "ĠÐ¼Ð¸Ð½Ð¸": 3486,
      "ĠÐ¿Ð¾ÑģÐµ": 3487,
      "ĠÐ´Ð²Ð¸Ð¶Ð": 3488,
      "ÑĢÑĥÐ³": 3489,
      "Ġhealth": 3490,
      "ĠCon": 3491,
      "ĠÐºÐ¾ÑĤÐ¾ÑĢÐ¾Ðµ": 3492,
      "Ð½Ð½Ð¸": 3493,
      "ĠÐºÐ¾ÑĢ": 3494,
      "Ġpat": 3495,
      "ĠÑģÑĢÐ¾": 3496,
      ".)": 3497,
      "ĠÑģÐ°Ð¹ÑĤÐµ": 3498,
      "ĠÐ´ÐµÑıÑĤÐµÐ»ÑĮÐ½Ð¾ÑģÑĤÐ¸": 3499,
      "ĠÐ¾ÐºÐ¾Ð»Ð¾": 3500,
      "Ð½Ð¸ÑĨÑĭ": 3501,
      "ley": 3502,
      "Ġmight": 3503,
      "Ð»Ð»Ð¸Ð": 3504,
      "ote": 3505,
      "ĠâĦĸ": 3506,
      "ĠÑĥÐ³": 3507,
      "ÑīÐµÐ¹": 3508,
      "ÑħÑĥ": 3509,
      "Ð²ÑĭÐ¼Ð¸": 3510,
      "Ġalways": 3511,
      "rol": 3512,
      "ĠÐ¾ÑģÐ¾Ð±ÐµÐ½Ð½Ð¾": 3513,
      "Ð²ÑĮ": 3514,
      "ĠÐ¼ÐµÐ½ÐµÐµ": 3515,
      "ĠÐ¿Ð¾Ð¿Ð°": 3516,
      "me": 3517,
      "ÑĩÐµÑĤÐ°": 3518,
      "ĠTr": 3519,
      "br": 3520,
      "Ð²Ð½Ð¾Ð": 3521,
      "ÑĪÐ»Ð¸": 3522,
      "Ġdri": 3523,
      "ÑĢÑİ": 3524,
      "¾Ð´Ð¸": 3525,
      "ÑģÑĤÐ²ÐµÐ½Ð½ÑĭÐ¹": 3526,
      "ĠSo": 3527,
      "ploy": 3528,
      "ling": 3529,
      "ĠÐ²ÑĭÐ±ÑĢÐ°": 3530,
      "ÑĢÐ¾Ñģ": 3531,
      "Ð²Ð¾Ðº": 3532,
      "ĠÑĥÐºÑĢÐ°": 3533,
      "Ð²Ð½Ð¾Ðµ": 3534,
      "ĠÐ½Ð¾Ð²Ð¾": 3535,
      "ÑĤÐµÐ»ÐµÐ¼": 3536,
      "Ð´Ð¸ÑĤÑĮ": 3537,
      "ÑģÐ¾Ð±Ð¾": 3538,
      "Ð¶Ð½ÑĭÐµ": 3539,
      "Ð´Ð¾Ðº": 3540,
      "ĠÐ¿ÑĢÐµÐ´Ð¿ÑĢÐ¸Ñı": 3541,
      "ĠÑĥÐ²ÐµÐ»Ð¸": 3542,
      "ĠÑģÐ¾Ð²ÐµÑĢÑĪÐ": 3543,
      "ĤÐ½Ð¾Ð¹": 3544,
      "ÑĤÐ½Ð¾Ð¹": 3545,
      "ĠÑĨÐµÐ½ÑĤ": 3546,
      "Ġclass": 3547,
      "ior": 3548,
      "ĠUS": 3549,
      "ÑģÑĤÐ²Ð¾Ð²Ð°ÑĤÑĮ": 3550,
      "ĠÑĥÐ·Ð½Ð°": 3551,
      "ÑĪÐµÐµ": 3552,
      "Ġunt": 3553,
      "Ð½Ð³Ð°": 3554,
      "ĠÐ¤ÐµÐ´ÐµÑĢÐ°": 3555,
      "µÑĤÑĮ": 3556,
      "ĠÐ¼Ð¾Ð¼ÐµÐ½ÑĤ": 3557,
      "ĠÑĤÐ¾ÑĢÐ³Ð¾": 3558,
      "ĠÐ±ÑĢÐ°": 3559,
      "ĠÑĢÐ°Ð±Ð¾ÑĤÑĥ": 3560,
      "Ð´Ð°ÑĢÑı": 3561,
      "ality": 3562,
      "ÐºÐ°Ð¼": 3563,
      "ĠComm": 3564,
      "Ġbelie": 3565,
      "ĠÐŁÐ¾ÑįÑĤÐ¾Ð¼Ñĥ": 3566,
      "Ġnumber": 3567,
      "ĠÐ¾ÑģÐ½Ð¾Ð²": 3568,
      "Ġseason": 3569,
      "Ġorgan": 3570,
      "ats": 3571,
      "Ġusing": 3572,
      "Ġel": 3573,
      "ÑĩÐ°ÐµÑĤ": 3574,
      "Ġpower": 3575,
      "Ð»ÐµÐ½Ñĭ": 3576,
      "ĠÑĢÐµÐ³Ñĥ": 3577,
      "Ġfamily": 3578,
      "Ð»ÑĭÐ": 3579,
      "ĠÐ¼Ð°Ð³Ð°": 3580,
      "ĠÐ´Ð½Ñı": 3581,
      "Ð¸Ð½Ñĥ": 3582,
      "ÐµÑĳ": 3583,
      "ohn": 3584,
      "Ġdr": 3585,
      "ĠÐºÑĥÑĢ": 3586,
      "ann": 3587,
      "Ð¿Ð¾ÑĤ": 3588,
      "ÐºÐ°ÑĢ": 3589,
      "ĠÑģÐ²ÑıÐ·Ð¸": 3590,
      "ĠÐ±Ð»Ð¾": 3591,
      "Ġsol": 3592,
      "ission": 3593,
      "Ġlet": 3594,
      "Ð´Ð¶Ðµ": 3595,
      "ĠÐµÑĳ": 3596,
      "ĠÐ¿ÐµÑĢÐµÐ´Ð°": 3597,
      "enn": 3598,
      "ĠInd": 3599,
      "ĠÐ°Ð¿": 3600,
      "ĠÐ¸ÑģÐ¿Ð¾Ð»": 3601,
      "iqu": 3602,
      "ĠÐ¿Ð¾Ð·Ð²Ð¾Ð»ÑıÐµÑĤ": 3603,
      "ĠÑįÐºÑģÐ¿Ðµ": 3604,
      "ĠÐ¾ÑĤÐ½Ð¾ÑĪÐ": 3605,
      "Ð´ÐµÐ»Ñı": 3606,
      "25": 3607,
      "ware": 3608,
      "Ġperform": 3609,
      "Ġann": 3610,
      "ĠÑıÐ²Ð»ÑıÑİÑĤÑģÑı": 3611,
      "Ð¸Ñİ": 3612,
      "Ð»ÐµÐ½ÑĮ": 3613,
      "Ð¼ÐµÐ½Ð°": 3614,
      "ĠÐ¿Ð¸ÑĤÐ°": 3615,
      "ÑģÐ½Ð¸": 3616,
      "ÑģÑĤÐ°Ð": 3617,
      "ĠÐ¿ÑĢÐ¾ÑĤÐ¸Ð²": 3618,
      "ustom": 3619,
      "Ð¼Ð°ÑĤÑĢÐ¸": 3620,
      "ĠÑħÑĢÐ°": 3621,
      "ÑĢÐµÐ±": 3622,
      "Ġval": 3623,
      "IN": 3624,
      "Ð»ÑĭÐµ": 3625,
      "ĠÑįÐºÑģ": 3626,
      "Ð¿ÑĤÐ¾": 3627,
      "ĠÐ¿ÑĢÐ¸Ð±": 3628,
      "ĠÐ³ÑĢÐ°Ð¶Ð´Ð°Ð": 3629,
      "ĠÐ³ÑĢÐ°Ð¶Ð´Ð°Ð½": 3630,
      "ÑĤÐ¾Ð³Ð¾": 3631,
      "ĠHow": 3632,
      "Ġexpl": 3633,
      "ĠCent": 3634,
      "ĠÐ¿Ð¾Ð²": 3635,
      "Ġide": 3636,
      "ÐĶÐ¾": 3637,
      "ains": 3638,
      "ÑīÐ¸Ð¼Ð¸": 3639,
      "ÑģÑĤÐ²ÐµÐ½Ð½ÑĭÐµ": 3640,
      "ably": 3641,
      "Ð¿ÑĢÑı": 3642,
      "Ġvar": 3643,
      "ĠÑģÐ²Ð¾Ð±Ð¾": 3644,
      "ĠÐ¿Ð¾ÑĤÐ¾Ð¼": 3645,
      "ÑħÐ¾Ð´ÑıÑ": 3646,
      "ÑħÐ¾Ð´ÑıÑĤ": 3647,
      "ĠÐ½Ð°Ð¿ÑĢÐ¸Ð¼ÐµÑĢ": 3648,
      "ĠÐĺÐ½": 3649,
      "pped": 3650,
      "gin": 3651,
      "ĠÐ¿ÐµÑĢÐ¸Ð¾Ð´": 3652,
      "ĠÐ¾ÑĤÑĢÐ°": 3653,
      "ĠÐ¿Ð¾Ð»ÑĮÐ·Ð¾Ð²Ð°": 3654,
      "ĠÐ¿ÑĢÐ¾ÑĦÐµÑģÑģÐ¸Ð¾Ð½Ð°": 3655,
      "ĠÑĢÐµÐ³Ð¸ÑģÑĤÑĢÐ°": 3656,
      "ĠMar": 3657,
      "³Ð¸": 3658,
      "ĠÐŀÐ½Ð°": 3659,
      "ÑħÐ²Ð°": 3660,
      "ĠÐ¿ÑģÐ¸": 3661,
      "ĠÐ²Ð»Ð¸Ñı": 3662,
      "Ġproject": 3663,
      "¾Ð½Ðµ": 3664,
      "ĠÐ»Ð¸ÑĨÐ°": 3665,
      "ÑĢÐ³Ð°": 3666,
      "ĠÑįÐ½Ðµ": 3667,
      "Ġsoc": 3668,
      "ĠOr": 3669,
      "ĠSp": 3670,
      "Ð²Ð°Ð½": 3671,
      "Ġincre": 3672,
      "ĠÐ§Ðµ": 3673,
      "raph": 3674,
      "ĠÐºÐ°Ð¶Ð´Ð¾": 3675,
      "ÑģÑĪÐ": 3676,
      "Ġturn": 3677,
      "osed": 3678,
      "ĠÐ½Ð¸ÐºÐ°": 3679,
      "ĠÑĢÐµÑĪÐ¸": 3680,
      "Ð¿Ð¾Ñģ": 3681,
      "ĠÐ²ÐµÐ´ÑĮ": 3682,
      "ĠÐ²Ð¾Ð·Ð´Ñĥ": 3683,
      "ÑĤÐµÐ½Ð": 3684,
      "´Ñĥ": 3685,
      "ĠÐ²ÐºÐ»ÑİÑĩÐ°": 3686,
      "½ÑĨÐ¸": 3687,
      "ĠÐĴÐ¸": 3688,
      "Ġbuild": 3689,
      "ator": 3690,
      "Ð²Ð½Ð¾Ð¹": 3691,
      "Ð¼Ð°Ñı": 3692,
      "ĠÐ²ÑĭÐ¿Ð¾Ð»": 3693,
      "14": 3694,
      "13": 3695,
      "ĠÐ²ÑĭÐ±Ð¾": 3696,
      "ĠÑī": 3697,
      "ĠÐ¾Ð³ÑĢÐ°Ð½Ð¸": 3698,
      "ÑĤÐµÐ»ÑĮÐ½Ð¾Ð": 3699,
      "Ð´ÐµÐ½Ð¸Ñı": 3700,
      "ÑĤÐµÐ»ÑĮÐ½Ð¾Ðµ": 3701,
      "ĠÐ²ÑĭÑĪÐµ": 3702,
      "ĠÑĤÐ¾Ð³Ð´Ð°": 3703,
      "Ġdays": 3704,
      "ĠÐ¿Ð¾ÑıÐ²Ð¸": 3705,
      "Ð²Ð»ÑıÑĤÑĮ": 3706,
      "ĠÑĢÐ°ÑģÐ¿ÑĢÐ¾": 3707,
      "ĠÐ¾ÐºÑĢÑĥ": 3708,
      "ÑĢÐ´Ð": 3709,
      "....": 3710,
      "outh": 3711,
      "ĠÐºÑĢÐ¸": 3712,
      "ĠÐ¾ÑĩÐµÑĢÐµÐ´": 3713,
      "ÑĤÑĢÐµÐ½Ð½Ð": 3714,
      "ÐºÐ²Ð°": 3715,
      "ĠÐ¾ÑĤÑģÑĥÑĤ": 3716,
      "ĠÑĤÐµÐ»Ðµ": 3717,
      "ÐºÐ¾Ð²Ð°": 3718,
      "ĠÐ¸Ñİ": 3719,
      "ĠÑĥÑģÑĤÐ°Ð½Ð¾": 3720,
      "Ð½Ð°ÑĢÑĥ": 3721,
      "Ġeffect": 3722,
      "ÑĢÐ¼Ðµ": 3723,
      "ĠÐ½Ð°Ð´Ðµ": 3724,
      "ĠÑĤÐµÐ¼Ð¿ÐµÑĢÐ°": 3725,
      "ron": 3726,
      "ÑĳÐ¼": 3727,
      "ĠÐ·Ð°ÐºÐ¾Ð½Ð¾": 3728,
      "ĠÐ¼ÐµÑĤÐ°": 3729,
      "ÑĩÐµÑģÐºÐ°Ñı": 3730,
      "ĠÐºÐ»Ð¸": 3731,
      "'ve": 3732,
      "ĠÐ¾ÑĢÐ³Ð°Ð½Ð¸Ð·Ð°ÑĨÐ¸Ð¸": 3733,
      "ĠÐ¼Ð¾Ð³": 3734,
      "ember": 3735,
      "Ġless": 3736,
      "stand": 3737,
      "ina": 3738,
      "ÑĩÐºÑĥ": 3739,
      "ÑĤÐµÑĢÐµ": 3740,
      "Ġwater": 3741,
      "16": 3742,
      "Ð²Ð¾Ð»ÑĮ": 3743,
      "Ð¼Ð°Ð": 3744,
      "ĠÑĢÐµÐ±ÐµÐ½ÐºÐ°": 3745,
      "Ð½Ð¸ÑĤÐµ": 3746,
      "µÑīÐ°": 3747,
      "Ġty": 3748,
      "Ġsure": 3749,
      "Ġnight": 3750,
      "ĠÐ²ÐµÑģÑĮ": 3751,
      "ÑĢÐµÐµ": 3752,
      "co": 3753,
      "Ð²Ð¾ÑĢÑı": 3754,
      "by": 3755,
      "ÑģÐµÐ´Ð°": 3756,
      "Ġcompany": 3757,
      "°Ñ": 3758,
      "ĠÐ¿Ð¾Ð²ÐµÑĢÑħ": 3759,
      "°ÑĤ": 3760,
      "ĠÐ²Ð°Ð¶Ð½Ð¾": 3761,
      "Ð¼ÑĭÐ": 3762,
      "ÑĨÐ¾": 3763,
      "here": 3764,
      "ruct": 3765,
      "ĠÐ±ÐµÐ·Ð¾Ð¿Ð°Ñģ": 3766,
      "ÑĢÐ½Ð¾Ð¹": 3767,
      "ÑĩÐµÐ½Ð¸Ð¸": 3768,
      "Ð¾ÑĤÐ¾": 3769,
      "ĠÐºÐ¾Ð½ÐµÑĩÐ½Ð¾": 3770,
      "Ð¶Ð´ÐµÐ½Ð¸Ðµ": 3771,
      "Ð²Ð¸Ð´Ðµ": 3772,
      "ĠÐ±ÑĢÐ¾": 3773,
      "Ġstre": 3774,
      "ĠMay": 3775,
      "ĠThat": 3776,
      "Ġgive": 3777,
      "ĠÑĥÑģÑĤÑĢÐ¾Ð¹": 3778,
      "Ġ2010": 3779,
      "ÑĢÐ¾Ð±": 3780,
      "Ð·Ð¸Ð´Ð": 3781,
      "ertain": 3782,
      "ÑĢÐ°Ð½Ñı": 3783,
      "ĠÑģÑĩÐµÑĤ": 3784,
      "Ġmarket": 3785,
      "Ġbre": 3786,
      "ĠÐ²Ð¾Ð´Ñĭ": 3787,
      "Ġpay": 3788,
      "ĠÐ²Ð½ÐµÑĪ": 3789,
      "¸Ð½Ð´Ð¸": 3790,
      "°ÑĢÐµ": 3791,
      "ÑĤÐºÐµ": 3792,
      "Ð´Ð½ÑĭÐ¹": 3793,
      "ÑģÑĤÐ¸Ðµ": 3794,
      "ĠÐ½Ð¸Ð¼": 3795,
      "ĠÐ¡ÑĤÐ°": 3796,
      "Ġtoday": 3797,
      "ĠÑĤÑĢÐ°Ð½ÑģÐ¿Ð¾": 3798,
      "Ġ40": 3799,
      "ĠÐ´ÐµÐ¹ÑģÑĤÐ²Ð¸Ñı": 3800,
      "orth": 3801,
      "ĠÐ¸ÑģÐºÐ»Ñİ": 3802,
      "ĠÑģÐ°Ð¼": 3803,
      "ĠÐ½Ð¸ÑĩÐµÐ³Ð¾": 3804,
      "Ð»ÑĮÐ": 3805,
      "ĠÐ¿ÑĢÐ°Ð²": 3806,
      "ccess": 3807,
      "ÑİÑīÐµÐµ": 3808,
      "ĠÐ¿ÑĢÐ°Ð²Ð°": 3809,
      "ĠÐŀÑ": 3810,
      "ĠÐŀÑĤ": 3811,
      "Ġmanag": 3812,
      "ÐĶÐ°": 3813,
      "Ð¸Ð½Ð´Ð¸": 3814,
      "¨ÐĲ": 3815,
      "ÑģÑĤÐ¸ÑĤÑĥ": 3816,
      "Ġcurrent": 3817,
      "Ð½ÐµÐ½Ð¸Ñİ": 3818,
      "Ġlevel": 3819,
      "Ġca": 3820,
      "Ð¼ÑĭÐµ": 3821,
      "ÑĤÐ½ÑĭÐ¼": 3822,
      "Ġleg": 3823,
      "ĠÐĸÐ": 3824,
      "ium": 3825,
      "µÑĪÐ°": 3826,
      "Ð¸Ð°Ð»ÑĮÐ½Ð¾": 3827,
      "ÑĤÐºÐ¾": 3828,
      "¾Ð´Ðµ": 3829,
      "ÐºÐ°Ð·": 3830,
      "St": 3831,
      "ĠÐ¿ÑĢÐ¾Ñı": 3832,
      "ON": 3833,
      "Ð´Ð½Ð¾Ð¹": 3834,
      "med": 3835,
      "ĠÐ¿Ð¾ÑĢÐ°": 3836,
      "Ġbas": 3837,
      "Ð²ÑĪÐ¸Ð¹": 3838,
      "ĠÐ¿ÑĢÐ¾ÑĨÐµÐ´Ñĥ": 3839,
      "ĠÐ´Ð¾Ð»Ð¶Ð½Ð°": 3840,
      "ĠÑĤÐ¾Ñ": 3841,
      "ĠÑĤÐ¾ÑĤ": 3842,
      "Ð»Ð¸Ð·Ð°ÑĨÐ¸Ð¸": 3843,
      "ĠÑħÑĥ": 3844,
      "iver": 3845,
      "tend": 3846,
      "ards": 3847,
      "Ð²Ð¸Ð´Ñĥ": 3848,
      "ĠÐ½Ð°ÑģÐµ": 3849,
      "ĠÐºÐ°ÐºÐ¾Ð¹": 3850,
      "ĠÑĩÐ¸ÑģÐ»Ðµ": 3851,
      "ently": 3852,
      "ĠÑĥÑĩ": 3853,
      "ÑĢÐ¾Ð½": 3854,
      "ĠÑģÐ¼Ðµ": 3855,
      "Ð²Ð»ÐµÐºÐ°": 3856,
      "Ð¼Ð¾Ð½": 3857,
      "Ð»ÑĭÐ¹": 3858,
      "Ġrecord": 3859,
      "ÑĪÑĥÑİ": 3860,
      "17": 3861,
      "ĠÐ²Ð¼ÐµÑģÑĤÐµ": 3862,
      "Ġpast": 3863,
      "ĠÐ¸Ð½Ð´Ð¸": 3864,
      "ained": 3865,
      "Ġpos": 3866,
      "ency": 3867,
      "ĠÑĤÐ°ÐºÐ¾Ðµ": 3868,
      "ral": 3869,
      "Ġ:": 3870,
      "inal": 3871,
      "ĠÐ²Ð¸Ð": 3872,
      "Ð¼ÐµÐ½ÑĮ": 3873,
      "ĠÐ¾ÑĤÐ½Ð¾ÑģÐ¸": 3874,
      "ÑĩÐ°ÐµÑĤÑģÑı": 3875,
      "Ġmeet": 3876,
      "Ð½Ð°Ð´": 3877,
      "ĠÑĦÐ¸Ð·Ð¸": 3878,
      "Ġview": 3879,
      "ĠÐ¾Ð´Ð½Ð¾Ð³Ð¾": 3880,
      "ĠÑħÐ¾Ð·Ñı": 3881,
      "ope": 3882,
      "ĠÐ¿Ð¾ÑĢ": 3883,
      "pend": 3884,
      "ĠÐ¾Ð¿Ð»Ð°": 3885,
      "ÑģÑĦÐ": 3886,
      "ĠÐ¾Ð±Ð¾ÑĢÑĥÐ´Ð¾": 3887,
      "ĠÑģÑĤÐ°ÑĤÑĮÐ": 3888,
      "ĠÐ¿Ð¾ÑĢÐ½Ð¾": 3889,
      "Ġcost": 3890,
      "Ð½Ð°Ð¼": 3891,
      "Ġ22": 3892,
      "Ġuntil": 3893,
      "ĠÑĥÑĩÐ°ÑģÑĤ": 3894,
      "ĠÑģÐ»ÑĥÐ¶": 3895,
      "ĠÑĢÐµÑĪÐ": 3896,
      "ĠÐ´Ð¾Ð»Ð³Ð¾": 3897,
      "µÐ½ÐºÐ¾": 3898,
      "ĠÑĤÐµÑħÐ½Ð¸": 3899,
      "Ġtest": 3900,
      "ĠÐµÐ²": 3901,
      "ney": 3902,
      "ĠÑģÑĤÑĢÐ°Ð½Ñĭ": 3903,
      "ĠSc": 3904,
      "Ġve": 3905,
      "ead": 3906,
      "Ð¿Ð¾Ð¼": 3907,
      "ĠÐ¾ÑĦÐ¾ÑĢÐ¼": 3908,
      "ĠÐ´Ð¾Ð»Ð¶Ð½Ð¾": 3909,
      "Ġrese": 3910,
      "Ġleft": 3911,
      "ĠÐ»ÐµÐ³ÐºÐ¾": 3912,
      "ÑĩÐ½ÑĭÐ¼": 3913,
      "ÑħÐµ": 3914,
      "ĠÑģÐ¾Ð²ÐµÑĤ": 3915,
      "Ð¾Ð±ÑīÐµ": 3916,
      "´Ñĭ": 3917,
      "Ġdidn": 3918,
      "ption": 3919,
      "ĠRes": 3920,
      "ĠÐ·Ð´Ð¾ÑĢÐ¾Ð²": 3921,
      "ĠÑģÐºÐ°Ð·Ð°Ð»": 3922,
      "Ð»Ð»Ð¸": 3923,
      "ĠÐ¿ÑĢÐ°Ðº": 3924,
      "ĠÐ¿Ð¾Ð»Ð½Ð¾ÑģÑĤÑĮÑİ": 3925,
      "Ð´Ð¾Ð²Ð°": 3926,
      "Ð¼Ð¾Ð¼": 3927,
      "Ð²Ð¾Ð»ÑĮÐ½Ð¾": 3928,
      "Ð¶Ð°ÑĤÑĮ": 3929,
      "Ġoffic": 3930,
      "conom": 3931,
      "Ð¶ÐµÐ¼": 3932,
      "ĠÐ²ÑĭÑı": 3933,
      "ĠÐĴÐ»Ð°": 3934,
      "ÑĨÐ¸Ð½": 3935,
      "ĠÑĢÐµÐ¶Ð¸": 3936,
      "augh": 3937,
      "ĠÐºÐ": 3938,
      "ÐľÐ°": 3939,
      "let": 3940,
      "ĠÐ¡Ñĥ": 3941,
      "ĠÐ¼Ð¸Ð½ÑĥÑ": 3942,
      "ĠÐ¼Ð¸Ð½ÑĥÑĤ": 3943,
      "ÑĢÐ½Ð¾Ð³Ð¾": 3944,
      "Ð²ÑĪÐ¸Ñħ": 3945,
      "ĠÐºÑĢÐ°ÑģÐ¸": 3946,
      "Ð¸Ð¼Ð¾ÑģÑĤÑĮ": 3947,
      "ĠÐ¡Ð¨ÐĲ": 3948,
      "Ġhum": 3949,
      "ĠÐŁÑĢÐµ": 3950,
      "Ġaway": 3951,
      "If": 3952,
      "ĠÐ´ÑĢÑĥÐ³Ð¾Ð¹": 3953,
      "ĠÐ£ÐºÑĢÐ°": 3954,
      "ĠÐ²ÐµÑīÐµ": 3955,
      "ĠÑįÑĤÐ¸Ð¼": 3956,
      "ised": 3957,
      "ĠUniversity": 3958,
      "ĠÐ¿Ð¾ÑĩÑĤÐ¸": 3959,
      "ĠÑģÐ»Ð¸": 3960,
      "ĠÐ·Ð°Ð¿Ð°": 3961,
      "ĠNo": 3962,
      "Ġjob": 3963,
      "ÑĤÑĭÐ¹": 3964,
      "ĠÐ¸Ð¼ÐµÑİÑ": 3965,
      "ĠÐ¸Ð¼ÐµÑİÑĤ": 3966,
      "Ġoper": 3967,
      "Ġfac": 3968,
      "ĠÐ¿ÑĢÐ°ÐºÑĤÐ¸": 3969,
      "ĠÐ¼Ð°ÐºÑģÐ¸": 3970,
      "ĠÐ¨Ð": 3971,
      "ĠÑĩÐ¸ÑĤÐ°": 3972,
      "Ġinvest": 3973,
      "ÑĤÐµÐ»ÑĮÐ½ÑĭÐ¼": 3974,
      "ÑīÐ°ÐµÑĤ": 3975,
      "ury": 3976,
      "ĠÐ¼ÐµÐ½ÑĮ": 3977,
      "ÑĢÐ°Ð¼": 3978,
      "Ġsit": 3979,
      "ged": 3980,
      "ĠÐ½Ð°Ð»Ð¾Ð³Ð¾": 3981,
      "Ġdist": 3982,
      "Ġimportant": 3983,
      "Ġthing": 3984,
      "Ð´ÑĥÐ¼Ð°": 3985,
      "³Ñĥ": 3986,
      "Ġhist": 3987,
      "ĠOn": 3988,
      "Ġdem": 3989,
      "Ð»Ð¾Ð¹": 3990,
      "Ġservice": 3991,
      "ÑĩÐ½Ð¾Ð": 3992,
      "Ġchildren": 3993,
      "ĠÑħÐ¾ÑĤÑı": 3994,
      "ÑĩÐ½Ð¾Ðµ": 3995,
      "Ð²Ð»ÐµÐ½Ð¸Ð¸": 3996,
      "ÑĪÐ°ÑĤÑĮ": 3997,
      "ined": 3998,
      "Ð»Ñĳ": 3999,
      "ĠÐ¿Ð¾Ð": 4000,
      "Ð½Ð°Ð²Ð»Ð¸": 4001,
      "ours": 4002,
      "ÑĢÑĥÐµÑĤÑģÑı": 4003,
      "ĠÑĥÑĩÐ°Ñģ": 4004,
      "alf": 4005,
      "ĠÑĪÐ¸ÑĢÐ¾": 4006,
      "ĠÐ´ÑĥÐ¼Ð°": 4007,
      "ÑģÑĤÐ½ÑĭÑħ": 4008,
      "ĠBr": 4009,
      "ĠÑĤÐµÐ¿ÐµÑĢÑĮ": 4010,
      "ases": 4011,
      "ĠÂ": 4012,
      "ĠChrist": 4013,
      "ĠJohn": 4014,
      "Ð§Ð": 4015,
      "¸Ð¼Ðµ": 4016,
      "ĠÐ½Ð°Ð±Ð»Ñİ": 4017,
      "ĠÐŁÐ¾Ð´": 4018,
      ");": 4019,
      "Ð¾ÑĤÐµ": 4020,
      "ÑĩÐµÐº": 4021,
      "¾ÑĢÐ¸Ð": 4022,
      "ĠÑĥÑģÐ¸": 4023,
      "app": 4024,
      "ĠÐķÐ²ÑĢÐ¾": 4025,
      "arent": 4026,
      "¾ÑīÑĥ": 4027,
      "Ð²Ð»ÑıÑİÑĤ": 4028,
      "ĠÑĥÑģÐ»Ð¾Ð²Ð¸ÑıÑħ": 4029,
      "Ġphot": 4030,
      "ten": 4031,
      "ĠÑĢÐ°Ð·ÑĢÐµ": 4032,
      "Ġprom": 4033,
      "Ġest": 4034,
      "°Ð±": 4035,
      "ĠÐºÐ°Ð·Ð¸Ð½Ð¾": 4036,
      "lection": 4037,
      "Ġcase": 4038,
      "Ð´Ð¸ÑĤÐµ": 4039,
      "ĠÐ¿Ð°ÑĨÐ¸Ð": 4040,
      "Ð²Ð½ÑĭÐ¹": 4041,
      "ĠÐ¿Ð¾Ð¼Ð¾Ð³Ð°": 4042,
      "ĠÑĦÐ¾ÑĢÐ¼Ð°": 4043,
      "ĠÑģÐ°Ð¼ÑĭÑħ": 4044,
      "Ð»ÑĮÐ½ÑĭÐ¼Ð¸": 4045,
      "oci": 4046,
      "±Ðµ": 4047,
      "Ġstudents": 4048,
      "Ġgrow": 4049,
      "Ġable": 4050,
      "Ð»ÑĮÐ½Ð¾Ð¼": 4051,
      "ĠAmerican": 4052,
      "Ð½Ð½ÑĭÐ¼Ð¸": 4053,
      "Ġ21": 4054,
      "Ġstat": 4055,
      "Ġprev": 4056,
      "ane": 4057,
      "Ð»ÑĮÐ·Ñı": 4058,
      "Ð¾ÑīÑĥ": 4059,
      "ÑİÑīÐ°Ñı": 4060,
      "ĠÐ´ÑĢÑĥÐ³Ð¸": 4061,
      "ĠÐ½Ð°ÑĢÐ¾": 4062,
      "ĠÑĢÐµÑĪÐµÐ½Ð¸Ðµ": 4063,
      "ÑģÐºÑĥÑİ": 4064,
      "ĠÐ»ÑİÐ±Ð¾Ð¹": 4065,
      "ÑģÐ°Ð½Ð´": 4066,
      "une": 4067,
      "Ġpresent": 4068,
      "Ġbeh": 4069,
      "ĠÑħÐ¸": 4070,
      "ÑĩÐµÑģÐºÐ¸": 4071,
      "ĠÑģÑĤÐ°Ð»": 4072,
      "ĠÐ¿ÑĢÐ¸Ð¼Ðµ": 4073,
      "Ð¼Ð°Ð½": 4074,
      "ĠÑģÐ°Ð¼Ð": 4075,
      "ĠÐ¿Ð¾ÐºÑĥÐ¿Ð°": 4076,
      "ĠÐ²Ð½ÑĥÑĤÑĢÐµÐ½Ð½Ð": 4077,
      "Ð½Ð´Ñĥ": 4078,
      "ĠÐ±Ñİ": 4079,
      "work": 4080,
      "ÑĩÐ¸Ð½Ñĭ": 4081,
      "ĠÐłÐ¾ÑģÑģÐ¸Ð¹": 4082,
      "ĠÐ½Ð°Ð¹ÑĤÐ¸": 4083,
      "ĠÑģÐ¸ÑģÑĤÐµÐ¼Ð°": 4084,
      "Ð¼ÑĭÑĪ": 4085,
      "ĠÐ¿Ð¾Ð¼Ð¾ÑīÐ¸": 4086,
      "Ġsite": 4087,
      "Ð¹Ð´ÐµÑĤ": 4088,
      "Ġpercent": 4089,
      "Ġtell": 4090,
      "Ð´Ð°ÑİÑĤ": 4091,
      "ÑģÐ¾Ð½Ð°": 4092,
      "ĠÐłÑĥ": 4093,
      "ĠÐ¾ÑīÑĥ": 4094,
      "ured": 4095,
      "of": 4096,
      "ĠÐ·Ð°Ð±Ð¾Ð»ÐµÐ²Ð°Ð½Ð¸Ñı": 4097,
      "ĠÐ¸Ð·Ð³Ð¾": 4098,
      "atter": 4099,
      "ĠÑĤÐµÐ": 4100,
      "urs": 4101,
      "nect": 4102,
      "ÑĩÑĤÐ¾": 4103,
      "Ġnear": 4104,
      "ĠÐ²Ð¾ÑģÑģÑĤÐ°": 4105,
      "ĠÐĳÑĥ": 4106,
      "ÐĻ": 4107,
      "AR": 4108,
      "ÑģÐºÐµ": 4109,
      "ĠÐ³Ð»Ð°Ð·Ð°": 4110,
      "µÐ½Ð½ÑĥÑİ": 4111,
      "Ġcourse": 4112,
      "Ġdata": 4113,
      "oor": 4114,
      "ĠÐ¿Ð¾ÑĢÑıÐ´": 4115,
      "Ġpop": 4116,
      "ÑģÐºÐ¾Ð¼Ñĥ": 4117,
      "Ð»Ð¾Ð³": 4118,
      "Ġmar": 4119,
      "¸ÑĤÐ¾": 4120,
      "rop": 4121,
      "ived": 4122,
      "ÑģÐ»ÑĥÐ¶Ð¸": 4123,
      "Ġword": 4124,
      "ĠÑįÑĤÑĥ": 4125,
      "ajor": 4126,
      "AN": 4127,
      "ÑĢÐ¼Ð¾": 4128,
      "Ð»Ð¾Ð": 4129,
      "ified": 4130,
      "ĠÐ¸Ð·Ñĥ": 4131,
      "uthor": 4132,
      "Ð»ÐµÐ½Ð°": 4133,
      "ĠÐ¿ÑĢÐ°Ð·": 4134,
      "ĠÐ½Ð°Ð¸Ð±Ð¾Ð»ÐµÐµ": 4135,
      "AT": 4136,
      "Ġarea": 4137,
      "ĠApp": 4138,
      "ÐľÐ¾": 4139,
      "Ġorder": 4140,
      "Ð½ÑĭÐ": 4141,
      "ÐŃÑĤÐ¾": 4142,
      "Ġgovernment": 4143,
      "ĠÑĥÐ»Ð¸": 4144,
      "Ġaff": 4145,
      "ĠÑīÐ": 4146,
      "Ð²Ð½ÑĭÐ¼": 4147,
      "ĠÑģÑĢÐµÐ´Ð¸": 4148,
      "ĠÑĥÐ´Ð¾Ð±": 4149,
      "ĠCar": 4150,
      "40": 4151,
      "ama": 4152,
      "Ð´ÐºÐ¾": 4153,
      "µÑĦ": 4154,
      "ider": 4155,
      "ÑĤÐµÐ»ÑıÐ¼": 4156,
      "ĠÑĥÑģÐ¿Ðµ": 4157,
      "Ġlight": 4158,
      "ĠFl": 4159,
      "ĠÑİÑĢÐ¸": 4160,
      "ÑģÐ¾Ðº": 4161,
      "Ð¶Ð½Ð¾Ð¹": 4162,
      "°ÑĤÐ°": 4163,
      "ĠÐ¿Ð¾Ð¶Ð°": 4164,
      "iting": 4165,
      "ym": 4166,
      "Ð»Ð¾Ðº": 4167,
      "por": 4168,
      "Ð¾Ð¶Ð¸": 4169,
      "ĠÐ»ÐµÑĩÐµÐ½Ð¸Ñı": 4170,
      "ÑĤÐ¼Ð": 4171,
      "ĠÑĤÑĥÑ": 4172,
      "ĠÑĤÑĥÑĤ": 4173,
      "ÑģÐ½ÑĭÐµ": 4174,
      "ÑĤÐ¾ÑĢÐ¾Ð²": 4175,
      "ĠÑĤÑıÐ¶Ðµ": 4176,
      "Ð¿ÑĢÐ¾Ð²Ð¾": 4177,
      "Ġ23": 4178,
      "ĠÑĤÐµÑĢÑĢÐ¸ÑĤÐ¾ÑĢÐ¸Ð¸": 4179,
      "ĠÐ±Ð¸Ð·Ð½ÐµÑģ": 4180,
      "ĠÐ¿Ð¾Ð¸Ñģ": 4181,
      "ĠÐ½Ð°ÑĪÐµÐ¹": 4182,
      "ĠÐ²ÐµÐ»Ð¸": 4183,
      "Ġname": 4184,
      "ĠÑģÑĢÐµ": 4185,
      "Ġnews": 4186,
      "ĠÑĢÐµÐ·ÑĥÐ»ÑĮÑĤÐ°ÑĤÐµ": 4187,
      "ĠÐ¿ÑĢÐ¸ÑĢÐ¾": 4188,
      "Ġexpect": 4189,
      "ES": 4190,
      "ĠÐ¿Ð¾Ð·Ð¸": 4191,
      "Ġcustom": 4192,
      "ĠÑģÐ²Ð¾Ð¸Ð¼": 4193,
      "ÑĤÐ¾Ð": 4194,
      "sh": 4195,
      "Ġlocal": 4196,
      "Ġline": 4197,
      "ĠÐ¿ÑĢÐ¾Ð¸ÑģÑħÐ¾Ð´Ð¸ÑĤ": 4198,
      "ĠÑģÐºÐ¾ÑĢÐ¾": 4199,
      "Ġsing": 4200,
      "ÑĤÑĭÐ": 4201,
      "ĠÐŁÑĥ": 4202,
      "Ġdep": 4203,
      "60": 4204,
      "iven": 4205,
      "ĠÐ¾Ð¶Ð¸": 4206,
      "ÑģÑĤÐ²ÐµÐ½Ð½Ð¸": 4207,
      "ĠÐ¸Ð½ÑĦÐ¾ÑĢÐ¼Ð°ÑĨÐ¸Ð¸": 4208,
      "Ġfar": 4209,
      "ÑĤÐµÐ³Ð¾": 4210,
      "Ġcap": 4211,
      "utes": 4212,
      "ĠÐłÐ°Ð·": 4213,
      "Ġspecial": 4214,
      "ĠÐ°Ð´Ð¼Ð¸Ð½Ð¸ÑģÑĤÑĢÐ°": 4215,
      "Ð·Ð¾Ð²": 4216,
      "ÑĢÐ¾Ð¿ÑĢÐ¸Ñı": 4217,
      "ĠÐ·Ñĥ": 4218,
      "Ð²Ð°ÐµÐ¼": 4219,
      "iron": 4220,
      "ideo": 4221,
      "ĠÐ¼ÐµÑģÑĤÐµ": 4222,
      "µÑīÑĳ": 4223,
      "ĠÑĢÐµÐ³Ð¸Ð¾Ð½Ð°": 4224,
      "Ġtalk": 4225,
      "ÑĢÐ³Ðµ": 4226,
      "Ġsal": 4227,
      "eb": 4228,
      "Ġexperience": 4229,
      "ĠÐºÑĥÐ¿Ð¸ÑĤÑĮ": 4230,
      "Ð¹ÑĤÐµÑģÑĮ": 4231,
      "ÑĢÐ¾Ñ": 4232,
      "Ð¾ÑĢÐ¸Ð": 4233,
      "Ġmillion": 4234,
      "ÑĢÐºÐµ": 4235,
      "ĠÐ´ÐµÐ¹ÑģÑĤÐ²Ð¸": 4236,
      "ĠÐ½Ð°ÑħÐ¾Ð´Ð¸ÑĤÑģÑı": 4237,
      "ÑĢÐ¾ÑĤ": 4238,
      "ories": 4239,
      "Ġ+": 4240,
      "ĠÑĢÐ°ÑģÑĤÐ": 4241,
      "Ð½ÑĭÑħ": 4242,
      "ĠÐ¸Ð³ÑĢÑĭ": 4243,
      "ĠGr": 4244,
      "Ġmaking": 4245,
      "Ð´Ð°Ð½Ð¸Ñı": 4246,
      "ĠÑĤÐ¾Ð¼Ñĥ": 4247,
      "Ġallow": 4248,
      "icle": 4249,
      "Ð½Ð¾ÑģÐ¸": 4250,
      "Ð½ÑĭÐµ": 4251,
      "ivid": 4252,
      "Ð²Ð¸Ñĩ": 4253,
      "Ġwithin": 4254,
      "Ð¿ÑĢÐ¸Ð½Ð¸Ð¼Ð°": 4255,
      "Ð²ÐµÐ´ÐµÐ½Ð¸Ðµ": 4256,
      "mber": 4257,
      "ĠÑģÐµÑĢ": 4258,
      "irl": 4259,
      "aim": 4260,
      "ĠÐµÐ¹": 4261,
      "ĠÐºÐ¾ÑĤÐ¾ÑĢÐ¾Ð¼": 4262,
      "ĠÐ¸Ð³ÑĢÐ°": 4263,
      "Ġhttp": 4264,
      "Ð¡Ð°": 4265,
      "You": 4266,
      "ÑĤÑĭÐµ": 4267,
      "ĠÐ²ÑĭÐ¿Ð¾Ð»Ð½Ñı": 4268,
      "ands": 4269,
      "ÑıÐ±ÑĢÑı": 4270,
      "ĠÐ½ÐµÑĥ": 4271,
      "Ġchang": 4272,
      "Ġfood": 4273,
      "Ġcame": 4274,
      "Ġkind": 4275,
      "Ġwhy": 4276,
      "ĠÐ¢Ð°ÐºÐ¶Ðµ": 4277,
      "uff": 4278,
      "Ð´ÑĢÐ¾": 4279,
      "ÑĤÑĭÑħ": 4280,
      "Ġ198": 4281,
      "ĠÐ½ÐµÐ´Ð¾ÑģÑĤÐ°": 4282,
      "ÑĤÐ¸ÑĩÐµÑģÐºÐ¸Ñħ": 4283,
      "ams": 4284,
      "aster": 4285,
      "ĠCo": 4286,
      "Ġmoney": 4287,
      "ÑģÐ¿ÑĥÐ±Ð»Ð¸": 4288,
      "âĢ¢": 4289,
      "Ġenough": 4290,
      "Ð¾ÑĢÑĥ": 4291,
      "ready": 4292,
      "ĠÐºÐ¾Ð¼Ð¸": 4293,
      "ĠÑĢÐ°Ð±Ð¾ÑĤÐµ": 4294,
      "ubl": 4295,
      "Ð¾Ð´Ðµ": 4296,
      "II": 4297,
      "Ð¼ÑĭÑħ": 4298,
      "Ġlarge": 4299,
      "ÑħÐ¾Ð²": 4300,
      "ĠÑĤÐ¾Ð»": 4301,
      "Ġchange": 4302,
      "Ġever": 4303,
      "Ð¸Ð¼Ðµ": 4304,
      "ĠÐ²Ð·Ð°": 4305,
      "ĠÐ¾Ð´Ð½Ð°": 4306,
      "'ll": 4307,
      "ret": 4308,
      "ĠÐ»Ð¸ÑĩÐ½Ð¾": 4309,
      "ÑģÑĨ": 4310,
      "¾Ð¿Ð°": 4311,
      "ÑĢÐµÐ½Ð¸Ðµ": 4312,
      "ĠÐ¾Ð±ÐµÑģÐ¿ÐµÑĩÐ¸": 4313,
      "ĠÐ¿ÑĢÐ¸Ð¼ÐµÐ½Ñı": 4314,
      "ording": 4315,
      "Ġcamp": 4316,
      "ĠÐ±Ð¾Ð»ÑĮÑĪÐ¸Ð½": 4317,
      "ÑģÑģÐ¸Ð¸": 4318,
      "Ġtimes": 4319,
      "ÐºÐ»Ð°Ð´Ñĭ": 4320,
      "ĠAt": 4321,
      "ĠÐĿÑĥ": 4322,
      "ĠÐ±Ð¾Ð»ÐµÐ·": 4323,
      "ĠÐ¿Ð¾Ð´Ð´ÐµÑĢÐ¶": 4324,
      "Ġcalled": 4325,
      "Ð¿ÐµÑĪ": 4326,
      "ĠÐ²Ð¸Ð´": 4327,
      "ĠÑģÐ²Ð¾Ðµ": 4328,
      "ĠÐĵÐ¾Ñģ": 4329,
      "ries": 4330,
      "Ð»Ð°Ð½": 4331,
      "ĠÐ±ÐµÑģÐ¿Ð»Ð°ÑĤÐ½Ð¾": 4332,
      "ĠÐ½Ð": 4333,
      "Ġconst": 4334,
      "ids": 4335,
      "Ð»ÐµÐ½Ð½Ð¾": 4336,
      "ÑīÐ¸Ð¼": 4337,
      "uro": 4338,
      "Ġaccess": 4339,
      "Ð½ÐºÐ¾Ð²": 4340,
      "Ð¿Ð¾Ð·Ð¸": 4341,
      "ÑĥÑĢÐ½Ð°": 4342,
      "ĠÑģÑĥÐ±": 4343,
      "aff": 4344,
      "Ġeng": 4345,
      "Ġstory": 4346,
      "Ġequ": 4347,
      "ization": 4348,
      "ĠÐļÑĢÐ¾Ð¼Ðµ": 4349,
      "ĠÑĢÐµÑĪÐµÐ½Ð¸Ñı": 4350,
      "ges": 4351,
      "ÑĢÐ¸Ñİ": 4352,
      "ĠÑģÑĤÐ°Ð½Ð¾Ð²Ð¸": 4353,
      "ĠÑĢÐ°Ð·Ð»Ð¸ÑĩÐ½ÑĭÑħ": 4354,
      "aring": 4355,
      "itions": 4356,
      "ored": 4357,
      "¾Ð·Ð½Ð°": 4358,
      "ĠMan": 4359,
      "OR": 4360,
      "ÑĤÐ¸ÑĢÐ¾Ð²Ð°": 4361,
      "¸Ð´ÐµÐ": 4362,
      "Ð¼ÐµÐ¹": 4363,
      "Ð²ÑĪÐ¸Ðµ": 4364,
      "ÐµÑīÑĳ": 4365,
      "Ġworking": 4366,
      "ĠÐ¼ÐµÑģÑĤ": 4367,
      "Ġmembers": 4368,
      "Ð½ÐµÐ½": 4369,
      "ode": 4370,
      "°Ñĥ": 4371,
      "ĠÑģÐ°Ð¼Ð¾ÑģÑĤÐ¾Ñı": 4372,
      "ÑĤÐµÐ»ÑıÐ¼Ð¸": 4373,
      "ĠÐłÐ¾": 4374,
      "ÑĤÐ¸Ð½": 4375,
      "Ð¾Ð·Ð½Ð°": 4376,
      "Ð½ÐµÑĢ": 4377,
      "ÑĤÐ°Ð": 4378,
      "ising": 4379,
      "ĠÐºÐ°ÐºÐ¸Ðµ": 4380,
      "ÑģÑĤÐ°Ð½": 4381,
      "ĠÐµÑīÑĳ": 4382,
      "ĠÐ²ÑģÑı": 4383,
      "Ġ2009": 4384,
      "ĠÐ²ÐµÑĢÐ": 4385,
      "ĠÐºÐ¾Ð¼Ð½Ð°": 4386,
      "Ð¿Ð¾ÑĤÑĢÐµÐ±": 4387,
      "Ġevent": 4388,
      "Ġprovide": 4389,
      "ĠÐ¿ÑĢÐ¾Ð±Ð»ÐµÐ¼Ñĭ": 4390,
      "ery": 4391,
      "ĠÐ¼Ð½Ð¾Ð³Ð¸Ðµ": 4392,
      "ĠÐ¼ÑĥÐ·Ñĭ": 4393,
      "Ð¶ÐµÐ¹": 4394,
      "ino": 4395,
      "Ð±Ð°ÑĤÑĭ": 4396,
      "ĠÐ¾Ð·Ð½Ð°": 4397,
      "Ġroom": 4398,
      "ĠÐºÐ¾Ð¼Ð¿Ð°Ð½Ð¸Ñı": 4399,
      "Ð¸Ð´ÐµÐ": 4400,
      "ĠÑģÑĤÐ°Ð»Ð¸": 4401,
      "ĠÐ²Ð¾Ð·Ð½Ð¸ÐºÐ°": 4402,
      "Ð»ÐµÐ½Ð¸Ð¸": 4403,
      "ither": 4404,
      "Ġaddition": 4405,
      "ĠRep": 4406,
      "ÐŀÐ±": 4407,
      "ÑĪÐ»Ð°": 4408,
      "ĠÑĦÐ¸Ð½Ð°Ð½ÑģÐ¾": 4409,
      "ÑģÑĤÐ²ÐµÐ½Ð½Ð¾ÑģÑĤÐ¸": 4410,
      "ĠÑģÐ°Ð¼Ð¸": 4411,
      "ĠÐ¥Ð¾": 4412,
      "ush": 4413,
      "ĠÐ¿ÑĢÐ¸Ð½ÑĨÐ¸": 4414,
      "ĠÐ¾ÑĢÐ¸Ð": 4415,
      "ĠÐ½Ð¸ÐºÐ¾": 4416,
      "ĠÑĦÐ¾ÑĢÐ¼Ð¸": 4417,
      "ĠÐ´ÐµÑģÑı": 4418,
      "ĠÐ¿ÐµÑĢÐ²ÑĭÐ¹": 4419,
      "ĠÐ¼ÐµÑĢÐ¾Ð¿ÑĢÐ¸Ñı": 4420,
      "ÑĪÐ°ÐµÑĤ": 4421,
      "ball": 4422,
      "ĠÐ¾Ð±ÑıÐ·Ð°ÑĤÐµÐ»ÑĮÐ½Ð¾": 4423,
      "ÑĤÐ¸ÐºÐ°": 4424,
      "ĠÐ¼Ð¸Ð»Ð»Ð¸Ð": 4425,
      "°Ð»Ð¸": 4426,
      "Ġleast": 4427,
      "ĠÐ¼Ð¸ÑĢÐ°": 4428,
      "ĠÐ¾ÑĤÐµ": 4429,
      "ÐµÐ¼Ð¾": 4430,
      "Ġmil": 4431,
      "ĠÑģÐ¾ÑħÑĢÐ°": 4432,
      "µÐ½Ð½ÑĭÐ¼Ð¸": 4433,
      "Ġelect": 4434,
      "ĠâĢĺ": 4435,
      "ĠÐ¸Ð½ÑĤÐµÑĢÐ½ÐµÑĤ": 4436,
      "ĠÐ¿ÑĢÐ°ÐºÑĤÐ¸ÑĩÐµÑģÐºÐ¸": 4437,
      "Ġcountry": 4438,
      "Ġlooking": 4439,
      "Ð»ÑĮÑİ": 4440,
      "ĠÐ½Ð°Ð¿Ð¸ÑģÐ°": 4441,
      "Ð°ÑĢÐµ": 4442,
      "Ð³ÑĢÑĥÐ·": 4443,
      "Ġhaving": 4444,
      "ĠÐ°ÐºÑĤÐ¸Ð²Ð½Ð¾": 4445,
      "ĤÐ½Ð¾Ð³Ð¾": 4446,
      "ÑĤÐ½Ð¾Ð³Ð¾": 4447,
      "ÑģÐ½ÑĭÑħ": 4448,
      "Ġmen": 4449,
      "ĠÐ¿Ð»Ð°Ð½Ð¸": 4450,
      "ĠÑĥÑĩÐ°ÑģÑĤÐ¸Ðµ": 4451,
      "Ġ...": 4452,
      "Ġsw": 4453,
      "ĠÑģÑĤÑĢÑĥÐº": 4454,
      "ĠÐ¿Ð¾Ð´Ð³Ð¾ÑĤÐ¾Ð²": 4455,
      "As": 4456,
      "Ġcommunity": 4457,
      "Ð½Ð´Ñĭ": 4458,
      "Ð²Ð¸Ð´ÑĥÐ": 4459,
      "ĠÐ¼ÐµÑĤ": 4460,
      "ÑģÐ¸Ð¸": 4461,
      "ĠÐ¿Ð¾ÑģÐºÐ¾": 4462,
      "Ġonline": 4463,
      "Ð´Ð½Ðµ": 4464,
      "¸Ð»": 4465,
      "aut": 4466,
      "artment": 4467,
      "Ð°Ð±": 4468,
      "ĠÑģÐ¾Ð¾ÑĤÐ²ÐµÑĤÑģÑĤÐ²Ñĥ": 4469,
      "ĠÑģÐ¾Ñģ": 4470,
      "ÑħÐ¾Ð´Ð¸ÑĤÑĮ": 4471,
      "ÑģÑĤÑĢÐ°Ð½": 4472,
      "Ð¶Ð½ÑĭÐ¹": 4473,
      "Ġben": 4474,
      "iety": 4475,
      "Ð»ÐµÐ½Ð¸Ñİ": 4476,
      "book": 4477,
      "ternational": 4478,
      "ĠÑĤÑĭÑģÑıÑĩ": 4479,
      "omm": 4480,
      "Ð·Ð°Ð´": 4481,
      "Ġmove": 4482,
      "ÑĢÑĥÑİÑĤ": 4483,
      "24": 4484,
      "ĠÑģÑĢÐ°Ð²": 4485,
      "ÑĤÐºÐ¾Ð²": 4486,
      "ĠÐ¸Ð´ÐµÐ": 4487,
      "ÑĪÐ¸ÑģÑĮ": 4488,
      "ĠÐ±Ð»Ð¸Ð": 4489,
      "Ġprote": 4490,
      "ĠÐĽÐ¸": 4491,
      "ÑģÐ½Ð¾Ð¹": 4492,
      "ĠÐ²Ð¾Ð·Ð²ÑĢÐ°": 4493,
      "Ġair": 4494,
      "org": 4495,
      "ÑģÑĤÑĥÐ¿Ð": 4496,
      "ĠÑģÐ¾Ð±Ñĭ": 4497,
      "ÑĩÐµÐ½": 4498,
      "Ġsever": 4499,
      "ĠÑĤÐ°ÐºÐ¾Ð³Ð¾": 4500,
      "Ġalready": 4501,
      "Ð´Ð²Ð¸Ð¶Ð": 4502,
      "Ġdone": 4503,
      "ÑĢÐ¸Ð·": 4504,
      "Ġbit": 4505,
      "ĠÐ¿Ð¾Ð´Ð¾Ð±": 4506,
      "ĠÐ¿Ð°Ð¼Ñı": 4507,
      "¾ÑĪ": 4508,
      "ĠÑĢÐ°Ð¼": 4509,
      "ÑĩÐ½ÑĥÑİ": 4510,
      "Ð³Ð½Ð¾": 4511,
      "¾Ð½Ð¾": 4512,
      "ĠÐ¾Ð´Ðµ": 4513,
      "Ġmusic": 4514,
      "ÑģÐ½ÑĭÐ¹": 4515,
      "Ð½Ð¸ÑĨÐµ": 4516,
      "Ð½ÐºÑĥ": 4517,
      "ĠÑħÐ¾Ð»Ð¾": 4518,
      "ĠÐ·Ð°ÑĤÐµÐ¼": 4519,
      "ĠÑģÐ¿ÐµÑĨÐ¸Ð°Ð»ÑĮÐ½Ð¾": 4520,
      "µÑħÐ°": 4521,
      "Ġpract": 4522,
      "ĠÐĴÐ»Ð°Ð´Ð¸": 4523,
      "ĠÑĢÐµÐºÐ»Ð°": 4524,
      "ĠÑģÐ¾Ð²ÑĢÐµÐ¼ÐµÐ½Ð": 4525,
      "ĠÐ´Ñĭ": 4526,
      "ÑĩÐµÑģÐºÐ¸Ð¼": 4527,
      "ĠÐ·Ð°ÐºÐ»Ñİ": 4528,
      "ĠÑĤÐµÐ»ÐµÑĦÐ¾": 4529,
      "erence": 4530,
      "Ġshort": 4531,
      "Ġeconom": 4532,
      "ĠState": 4533,
      "ĠÑĥÐ»ÑĥÑĩ": 4534,
      "ĠÐ²ÑĭÐ´Ð°": 4535,
      "ĠÐĲÐ»ÐµÐºÑģÐ°Ð½Ð´": 4536,
      "ÐºÐ°Ð·ÑĭÐ²Ð°ÐµÑĤ": 4537,
      "Ð´Ð¾ÑĢÐ¾": 4538,
      "ĠÑĢÐµÐºÐ¾Ð¼ÐµÐ½Ð´Ñĥ": 4539,
      "Ġwent": 4540,
      "ĠÑĤÐµÐº": 4541,
      "Ð»Ð¸Ð¸": 4542,
      "ÑĤÐµÐ»ÑĮÐ½Ð°Ñı": 4543,
      "ÐºÑ": 4544,
      "¾ÐºÐ¾Ð½": 4545,
      "Ð»Ð¸ÑĤÑĮ": 4546,
      "ĠÐ½ÐµÐµ": 4547,
      "For": 4548,
      "ĠÐ·Ð°ÐºÐ¾Ð½Ð¾Ð´Ð°": 4549,
      "ĠÑĢÐ°ÑģÑģÐºÐ°Ð·Ð°": 4550,
      "ĠÐ½Ð°ÑĩÐ°Ð»Ð°": 4551,
      "°Ð»ÑĮ": 4552,
      "ĠÐ°ÑĢÐµ": 4553,
      "ĠÑĥÐ¿ÑĢÐ°Ð²Ð»ÐµÐ½Ð¸Ñı": 4554,
      "ĠÐ¼Ð°Ð»ÐµÐ½ÑĮ": 4555,
      "Ġemploy": 4556,
      "ĠÑĨÐµÐ½ÑĤÑĢÐ°": 4557,
      "ÑģÑĤÑĥÐ¿Ð¸": 4558,
      "iday": 4559,
      "ĠÐ¿ÑĢÐ¾Ð´Ð¾Ð»Ð¶Ð°": 4560,
      "Ð¾ÑĪ": 4561,
      "He": 4562,
      "½ÑĢÐ°Ð²Ð¸": 4563,
      "Ġsuccess": 4564,
      "Ġwrit": 4565,
      "Ĥ¬": 4566,
      "ĠÑĤÐ°ÐºÐ¸Ð¼": 4567,
      "Ð²ÐºÑĥ": 4568,
      "ted": 4569,
      "ÑĤÐ¸ÑĩÐµÑģÐºÐ¸Ðµ": 4570,
      "ÐºÑģÐ°": 4571,
      "ĠÐ²Ð¾Ð·Ð½Ð¸Ðº": 4572,
      "ĠTo": 4573,
      "idd": 4574,
      "Ġproper": 4575,
      "Ð°ÑĤÐ°": 4576,
      "Ġtook": 4577,
      "ern": 4578,
      "ĠGod": 4579,
      "Ð²Ð¸Ð»Ð¸": 4580,
      "Ġside": 4581,
      "¾ÑħÑĢÐ°": 4582,
      "¾ÑĦ": 4583,
      "ĠÐ²Ð¾Ð¿ÑĢÐ¾ÑģÑĭ": 4584,
      "gether": 4585,
      "ĠEng": 4586,
      "orld": 4587,
      "Ð¾ÐºÐ¾Ð½": 4588,
      "Ġtogether": 4589,
      "Ð´Ð¸Ñ": 4590,
      "Ð´Ð¸ÑĤ": 4591,
      "ĠÑģÑĦÐµ": 4592,
      "ĠÐ¿Ð¾ÑģÐºÐ¾Ð»ÑĮÐºÑĥ": 4593,
      "Ġ28": 4594,
      "ĠWhat": 4595,
      "ability": 4596,
      "side": 4597,
      "ĠÐ±Ð¾Ð»ÑĮÑĪÐ¾Ð¹": 4598,
      "Ġthought": 4599,
      "eral": 4600,
      "ÑĩÐ¸Ð½": 4601,
      "pping": 4602,
      "ÑĢÐ¼Ñĭ": 4603,
      "ĠÐ¾ÑĪ": 4604,
      "yn": 4605,
      "use": 4606,
      "ĠÑģÐ¼": 4607,
      "Ġdev": 4608,
      "ĠÐ¿Ð¾ÑĤÐµ": 4609,
      "ĠÑĢ": 4610,
      "ĠÐ¸ÑģÑĤÐ¾Ñĩ": 4611,
      "Ġalong": 4612,
      "Ġmajor": 4613,
      "Ġfund": 4614,
      "Ð¾ÑģÑĤÐ°": 4615,
      "joy": 4616,
      "ĠÐ¾ÐºÐ¾Ð½": 4617,
      "Ð´ÐµÐ½Ð¸Ðµ": 4618,
      "ĠÐ¿ÑĢÐ¾Ð¸Ð·Ð¾": 4619,
      "ĠÐ½Ð¸Ð·": 4620,
      "Ġapplic": 4621,
      "ĠÐ»Ñĥ": 4622,
      "for": 4623,
      "ĠÐ·Ð°ÐºÑĢÑĭ": 4624,
      "ump": 4625,
      "Ġseveral": 4626,
      "Ð´Ð¶": 4627,
      "ĠÐ£ÐºÑĢÐ°Ð¸Ð½Ñĭ": 4628,
      "ĠÐ²Ð¾Ð·Ð´ÐµÐ¹": 4629,
      "ĠÑĥÑĢÐ¾Ð²": 4630,
      "Ġ2008": 4631,
      "ĠÐ´Ð°Ð½Ð½ÑĭÑħ": 4632,
      "ĠÐ¼Ð°ÐºÑģÐ¸Ð¼Ð°": 4633,
      "ĠÐĴÐ°Ð¼": 4634,
      "ĠÐ½Ð°Ð·Ð°Ð´": 4635,
      "ills": 4636,
      "ĠÐºÐ¾ÑĤÐ¾ÑĢÑĥÑİ": 4637,
      "Ġimpro": 4638,
      "ober": 4639,
      "ĠÐ¼ÐµÑħÐ°": 4640,
      "ĠÑģÐ°Ð¹Ñ": 4641,
      "ĠÑģÐ°Ð¹ÑĤ": 4642,
      "22": 4643,
      "µÐ½ÐµÑĢÐ°": 4644,
      "Ġinclude": 4645,
      "ÑģÐ¸ÑĤÐµ": 4646,
      "ÑĢÐºÑĥ": 4647,
      "ĠÑĥÐ²Ð¸": 4648,
      "Ġactiv": 4649,
      "µÐ¶Ðµ": 4650,
      "ÑĩÐ°Ñ": 4651,
      "Ð¼ÐµÑĢÐ¸ÐºÐ°Ð½": 4652,
      "ÐºÑĢÐµÐ¿": 4653,
      "ĠÐ¶ÐµÐ½ÑīÐ¸": 4654,
      "Ġwon": 4655,
      "ĠSu": 4656,
      "ÑĩÐ°ÑĤ": 4657,
      "Ð´ÐµÐ¼": 4658,
      "ĠÐ°Ð±": 4659,
      "Ġpa": 4660,
      "ĠÐ´Ð¾ÑģÑĤÐ¾": 4661,
      "ĠÑĤÑĢÐ°Ð´Ð¸": 4662,
      "ials": 4663,
      "ĠMed": 4664,
      "ians": 4665,
      "½ÑĥÐ»": 4666,
      "af": 4667,
      "ĠÐ¾Ð´Ð½Ð°ÐºÐ¾": 4668,
      "Ð´ÐºÐ°": 4669,
      "ĠÑģÐºÐ°Ð·Ð°ÑĤÑĮ": 4670,
      "ĠÐºÑĢÑĭ": 4671,
      "Ġes": 4672,
      "ĠÐºÐ»Ñĥ": 4673,
      "ĠÐ²ÑĭÐ¿Ð»Ð°": 4674,
      "ĠÐ¿Ð¾ÐºÑĢÑĭ": 4675,
      "ĠÐ¾ÑĤÐ½Ð¾ÑĪÐµÐ½Ð¸Ñı": 4676,
      "ĠÐºÐ¾Ð»Ð»ÐµÐº": 4677,
      "Ġ60": 4678,
      "ĠÑĤÐµÐ¿Ð»Ð¾": 4679,
      "Ġfive": 4680,
      "ÐµÐ¶Ðµ": 4681,
      "ĠÐ²Ð¾Ð¾Ð±ÑīÐµ": 4682,
      "ÐºÑĤ": 4683,
      "ots": 4684,
      "Ð»ÑİÑĤ": 4685,
      "Ġocc": 4686,
      "ĠÑģÐ»Ð¾Ð¶Ð½Ð¾": 4687,
      "ĠÐĵÐµ": 4688,
      "ĠÐĽÑĥ": 4689,
      "Ð²Ð°ÐµÐ¼Ñĭ": 4690,
      "Ð¼Ð¾Ðµ": 4691,
      "ĠÐ¿ÑĥÐ½Ðº": 4692,
      "ĠÐ¾Ð¿ÑĢÐµÐ´ÐµÐ»Ñı": 4693,
      "ĠÐ²Ð¾Ð·Ð¼Ð¾Ð¶Ð½Ð¾ÑģÑĤÐ¸": 4694,
      "Ð¶Ð´Ñĭ": 4695,
      "ĠÐ¿ÑĢÐµÐ´ÑĥÑģ": 4696,
      "ĠÐ¼Ð°Ð»Ð¾": 4697,
      "ĠÐ²ÑĭÐ·Ñĭ": 4698,
      "ĠWhen": 4699,
      "ĠÐ¼ÐµÐ´Ð¸ÑĨÐ¸Ð½": 4700,
      "ĠÐ¿Ð¾Ð»Ð¾Ð¶Ð¸": 4701,
      "Ð¶ÐµÐ½Ð¸Ð¸": 4702,
      "ÑģÑĤÐ²Ð¸Ð¹": 4703,
      "Ð²Ð¾Ð´Ð°": 4704,
      "Ġtold": 4705,
      "ĠMy": 4706,
      "Ġservices": 4707,
      "ĠÐµÐ²ÑĢÐ¾": 4708,
      "ĠÐºÐ¾Ð½ÑģÑĤÑĢÑĥÐº": 4709,
      "ĠÑĢÐ°Ð²Ð½Ð¾": 4710,
      "ĠYork": 4711,
      "ĠÑģÐ¼ÐµÑĢ": 4712,
      "ĠÐ°Ð´ÑĢÐµ": 4713,
      "Ġmean": 4714,
      "ĠÑģÐ¾Ð²ÑģÐµÐ¼": 4715,
      "Ð½Ð³Ð¾": 4716,
      "Ġoften": 4717,
      "ĠCan": 4718,
      "Ð¾Ð½Ð¾": 4719,
      "ĠÐ¿ÑģÐ¸ÑħÐ¾": 4720,
      "ĠÐ¾ÑĤÐ»Ð¸ÑĩÐ": 4721,
      "Ġdoing": 4722,
      "ĠÐµÐ¶Ðµ": 4723,
      "Ġ27": 4724,
      "ĠÐºÐ°ÑĤÐµÐ³Ð¾": 4725,
      "ĠÐ¿Ð»Ðµ": 4726,
      "ÑģÑĥÑĢ": 4727,
      "ĠAm": 4728,
      "ĠÐŁÐµÑĢ": 4729,
      "ients": 4730,
      "Ġdoesn": 4731,
      "Ġcomplete": 4732,
      "acy": 4733,
      "ourn": 4734,
      "ĠÐ¿ÑĢÐ¸ÑĩÐ¸": 4735,
      "ĠÑĢÐ°Ð·Ð½ÑĭÑħ": 4736,
      "ĠÐ²ÐµÑĩÐµ": 4737,
      "ÑĤÐ¸Ð²Ð½ÑĭÑħ": 4738,
      "ĠÑĩÐ°ÑģÑĤ": 4739,
      "ĠÐ½Ð¾Ð²ÑĭÐµ": 4740,
      "Ġbecome": 4741,
      "Ð¿ÑĥÑĤÐ°": 4742,
      "Ġreturn": 4743,
      "Ġfore": 4744,
      "ĠÐ¸Ð½Ð´Ð¸Ð²Ð¸Ð´ÑĥÐ": 4745,
      "ÑĤÐ°Ñı": 4746,
      "ĠÐ´ÑĢÐµ": 4747,
      "ĠÐĽÑİ": 4748,
      "ĠUnited": 4749,
      "Ġcontrol": 4750,
      "most": 4751,
      "ÐĴÑģÐµ": 4752,
      "ĠÐµÐ´Ð¸": 4753,
      "Ġfeat": 4754,
      "ĠÐ´Ð¸Ð·Ð°": 4755,
      "ĠÐ½ÐµÐ¼Ð½Ð¾Ð³Ð¾": 4756,
      "ÑģÑĪÐ¸": 4757,
      "Ġemail": 4758,
      "Ð¸ÑĤÐ¾": 4759,
      "orts": 4760,
      "ĠÐ´Ð¾Ð²Ð¾Ð»ÑĮÐ½Ð¾": 4761,
      "ĠÐ½ÐµÐ»ÑĮÐ·Ñı": 4762,
      "ĠÑģÑģÑĭ": 4763,
      "Ð²Ð¾Ð²": 4764,
      "Ð¼Ð¸Ð": 4765,
      "osp": 4766,
      "ĠÐļÑĢÐ°": 4767,
      "Ð¢Ðµ": 4768,
      "ĠÐĽÐµ": 4769,
      "ĠÐºÐ°Ð½Ð°": 4770,
      "ĠSte": 4771,
      "Ġgetting": 4772,
      "aps": 4773,
      "ĠÐºÐ»Ðµ": 4774,
      "ĠÑĨÐ²ÐµÑĤ": 4775,
      "ĠÐ¾Ð½Ð¾": 4776,
      "duct": 4777,
      "ĠÐķÐ³Ð¾": 4778,
      "Ġwomen": 4779,
      "avor": 4780,
      "Ð²Ð°Ð¹ÑĤÐµ": 4781,
      "Ġnon": 4782,
      "Ġeduc": 4783,
      "ĠÐ½Ð¾Ð²ÑĭÑħ": 4784,
      "Ġago": 4785,
      "ris": 4786,
      "ĠÐļÐ¾Ð³Ð´Ð°": 4787,
      "used": 4788,
      "ĠÐ´ÐµÐ»Ðµ": 4789,
      "Ġunderstand": 4790,
      "ĠÐ¼Ð½Ð¾Ð³Ð¸Ñħ": 4791,
      "Ġcond": 4792,
      "ĠÐ¿Ñı": 4793,
      "Ð»Ð¸Ð½": 4794,
      "ĠÐ¶ÑĥÑĢÐ½Ð°": 4795,
      "ĠÐ²Ð·Ð³Ð»Ñı": 4796,
      "ony": 4797,
      "Ġfollowing": 4798,
      "Ð´ÐµÐ»Ð¸ÑĤÑĮ": 4799,
      "AS": 4800,
      "Ġ26": 4801,
      "ÐľÑĭ": 4802,
      "ĠÐ´Ð¾Ð¼Ð°ÑĪ": 4803,
      "ĠÑģÐ²ÐµÑĤ": 4804,
      "µÐ¾": 4805,
      "ĠÑģÐ¼Ñĭ": 4806,
      "ÑģÑĤÐ²ÐµÐ½Ð½Ð¾Ð": 4807,
      "ĠÑĢÐ°Ð·Ð´Ðµ": 4808,
      "ÑģÑĤÐ²ÐµÐ½Ð½Ð¾Ðµ": 4809,
      "ĠÑĢÑĥÐºÐ¾Ð²Ð¾Ð´Ð¸": 4810,
      "ĠÐłÐ¾ÑģÑģÐ¸Ð¹ÑģÐºÐ¾Ð¹": 4811,
      "Ð½Ð½Ð¾ÑģÑĤÐ¸": 4812,
      "uly": 4813,
      "ĠÐ¾ÑĤÐ¾": 4814,
      "ene": 4815,
      "ĠÐ¸ÑģÐºÑĥÑģ": 4816,
      "Ġcity": 4817,
      "Ġyoung": 4818,
      "ĠÑģÑĤÐµÐ¿Ð": 4819,
      "ĠÐ¾Ð±Ð½Ð°ÑĢÑĥ": 4820,
      "ĠBro": 4821,
      "atic": 4822,
      "ched": 4823,
      "Ð¿ÐµÐ¹": 4824,
      "crib": 4825,
      "Ġprofess": 4826,
      "pro": 4827,
      "ÐŁÐ¾ÑģÐ»Ðµ": 4828,
      "Ð·ÑĮ": 4829,
      "Ġcut": 4830,
      "ĠÐ³Ð¸Ð": 4831,
      "ĠÑģÑĢÐ¾Ðº": 4832,
      "ĠÐ¤ÐµÐ´ÐµÑĢÐ°ÑĨÐ¸Ð¸": 4833,
      "Ġhold": 4834,
      "Ġmakes": 4835,
      "ĠÐ¾Ð±ÑĢÐ°ÑĤÐ¸": 4836,
      "Ġreview": 4837,
      "ler": 4838,
      "Ġlive": 4839,
      "ĠÐ¼Ð½Ð¾Ð¶Ðµ": 4840,
      "lege": 4841,
      "ĠÐ¾Ð±ÑĭÑĩÐ½Ð¾": 4842,
      "ides": 4843,
      "ĠÐ¾ÑĤÐ·Ñĭ": 4844,
      "Ġtrad": 4845,
      "ĠÐ¸Ð½ÑģÑĤÑĢÑĥ": 4846,
      "ĠÑĩÐµÑĤÑĭ": 4847,
      "ĠÐ¸ÑĤÐ¾": 4848,
      "ĠÐºÐ°ÑģÐ°": 4849,
      "ĠÐºÐ¾Ð¼Ð¿ÑĮÑİ": 4850,
      "ÑĢÐ¾ÑıÑĤ": 4851,
      "uture": 4852,
      "ĠCount": 4853,
      "ĠÐ·Ð°ÑĢÐ°": 4854,
      "ÑĢÐ¸Ð°": 4855,
      "ĠÑģÐ¾ÑģÑĤÐ°Ð²Ð»ÑıÐµÑĤ": 4856,
      "ĠÐ¸Ð¼ÑĥÑīÐµ": 4857,
      "ĠMc": 4858,
      "fect": 4859,
      "ĠÑģÐ¾ÑĨÐ¸Ð°Ð»ÑĮÐ½Ð¾": 4860,
      "ĠÐ»ÐµÐºÐ°ÑĢ": 4861,
      "Ġothers": 4862,
      "ĠÐ³Ð¾Ð²Ð¾ÑĢÐ¸Ñ": 4863,
      "ĠÐ³Ð¾Ð²Ð¾ÑĢÐ¸ÑĤ": 4864,
      "ĠÐ¿ÑĢÐ°Ð²Ð¸Ð»ÑĮÐ½Ð¾": 4865,
      "oice": 4866,
      "ĠÑĢÐ°Ð·ÑĢÐ°Ð±Ð¾": 4867,
      "ĠÑģÑĥÐ´Ðµ": 4868,
      "Ġtax": 4869,
      "ĠÐ¿ÐµÑĢÑģÐ¾Ð½Ð°": 4870,
      "ĠÐ²Ð¿Ðµ": 4871,
      "ĠÑģÐ°Ð¼Ð¾Ð¼": 4872,
      "lement": 4873,
      "ĠÐ¿ÑĢÐ¾ÑĦÐ¸": 4874,
      "Ð°Ñĥ": 4875,
      "Ġpolit": 4876,
      "ĠÐ½ÐµÐ´Ð¾": 4877,
      "ĠÑħÐ¾ÑĩÐµÑĤ": 4878,
      "viron": 4879,
      "ĠÑĩÐ°ÑģÐ¾Ð²": 4880,
      "ĠÐ½ÐµÑģÐºÐ¾Ð»ÑĮ": 4881,
      "Ð½ÑĭÐ¹": 4882,
      "ĠÑĢÐ°Ð·Ð½Ð¾": 4883,
      "ĠÐºÐ¾Ñģ": 4884,
      "Ġyet": 4885,
      "ister": 4886,
      "ĠÐ¿Ð¸ÑģÑĮ": 4887,
      "Ġresearch": 4888,
      "ÑĨÐ¾Ð²": 4889,
      "ÑĪÐºÐ¾Ð¼": 4890,
      "over": 4891,
      "Ġlearn": 4892,
      "Ġearly": 4893,
      "ĠÐ·Ð°Ð²Ð¸ÑģÐ¸Ð¼Ð¾ÑģÑĤÐ¸": 4894,
      "ĠÐ¼ÐµÐ¶Ð´ÑĥÐ½Ð°": 4895,
      "ĠÐ³ÑĢÑĥÐ¿Ð¿Ñĭ": 4896,
      "ĠÐļÐ¾Ð": 4897,
      "ĠÐ¿Ð¸ÑģÐ°": 4898,
      "Ġindust": 4899,
      "Ġdeal": 4900,
      "Ð²Ð¸Ð°": 4901,
      "ĠÐ¾ÑĩÐµÑĢÐµÐ´ÑĮ": 4902,
      "rew": 4903,
      "ĠÐ¾ÑģÐ½Ð¾Ð²Ðµ": 4904,
      "ĠÐ½Ð¾Ð²Ð¾Ð³Ð¾": 4905,
      "Ġnet": 4906,
      "ÑĪÐ¸ÑĤÑĮ": 4907,
      "allen": 4908,
      "Ġhouse": 4909,
      "Ð²Ð¸Ñ": 4910,
      "Ġlater": 4911,
      "Ð²Ð¸ÑĤ": 4912,
      "ĠÐ¸Ð·Ð¼ÐµÐ½ÐµÐ½Ð¸Ñı": 4913,
      "Ġpar": 4914,
      "ĠÑĥÑģÐ»Ð¾Ð²Ð": 4915,
      "ĠÐ´ÑĢÑĥÐ³": 4916,
      "ĠÐ¾ÑĤÐ´Ñĭ": 4917,
      "ĠÐ·Ð°Ð²Ð¸ÑģÐ¸Ñ": 4918,
      "ĠÐ·Ð°Ð²Ð¸ÑģÐ¸ÑĤ": 4919,
      "ones": 4920,
      "Ġcertain": 4921,
      "ÑĤÐ½ÑĥÑİ": 4922,
      "ĠÐ¼Ð°Ð³Ð°Ð·Ð¸": 4923,
      "Ġla": 4924,
      "ĠÐ¿ÑĢÐ¾ÑĨÐ": 4925,
      "ances": 4926,
      "Ð¼ÐµÑĢÐ½Ð¾": 4927,
      "ÐĳÐ¾": 4928,
      "Ġwebs": 4929,
      "ĠÐ²ÑĭÐ·": 4930,
      "And": 4931,
      "not": 4932,
      "itive": 4933,
      "ĠÑģÑĤÐ°ÑĢ": 4934,
      "ĠAss": 4935,
      "gle": 4936,
      "ĠÐ³Ð°ÑĢÐ°Ð½": 4937,
      "ĠÑģÐµÑĢÐ´": 4938,
      "Ð±Ð½ÑĭÐµ": 4939,
      "Ð¿ÐµÑĢÐµ": 4940,
      "Ġcharac": 4941,
      "Ġhappen": 4942,
      "Ð±Ð½ÑĭÑħ": 4943,
      "Ð²Ð°Ð»Ð¸ÑģÑĮ": 4944,
      "ĠÐ²ÑģÐµÐ¹": 4945,
      "Ġvers": 4946,
      "aken": 4947,
      "Ġlim": 4948,
      "ĠÐ½Ð°ÑħÐ¾Ð´Ñı": 4949,
      "ĠÑĥÑĢÐ¾Ð²ÐµÐ½ÑĮ": 4950,
      "ÑģÑıÑ": 4951,
      "ÑģÑıÑĤ": 4952,
      "ĠÑģÐ¾Ð¾ÑĤÐ²ÐµÑĤÑģÑĤÐ²Ð¸Ð¸": 4953,
      "ĠÐ¿Ð¾Ð¿ÑĢÐ¾": 4954,
      "Ð²Ð°Ð½Ð¸Ñİ": 4955,
      "ĠÑģÐ²Ð¾Ð¸Ð¼Ð¸": 4956,
      "ÑĢÐ±Ñĥ": 4957,
      "ĠPr": 4958,
      "Ġonce": 4959,
      "ĠÐ¿Ð¾Ð»Ð": 4960,
      "Ġwar": 4961,
      "Ð¿Ð¾Ð»Ð½Ðµ": 4962,
      "itor": 4963,
      "ÑģÑĤÑĢÐ¾Ð¸": 4964,
      "ĠÐ¿ÑĢÐ¸Ð±Ñĭ": 4965,
      "Ð²ÑĪÐ¸ÑģÑĮ": 4966,
      "ÑĨÐ¸Ð¾Ð½Ð½ÑĭÑħ": 4967,
      "ĠÑĥÑĤÐ²ÐµÑĢÐ¶": 4968,
      "ĠÐ±ÐµÐ·Ð¾Ð¿Ð°ÑģÐ½Ð¾ÑģÑĤÐ¸": 4969,
      "ĠÐ²Ð»Ð°ÑģÑĤÐ¸": 4970,
      "ÑĬÑı": 4971,
      "ĠÑĢÐ°Ð±Ð¾ÑĤÐ°ÑĤÑĮ": 4972,
      "ĠÐ¿Ð¾ÑĩÐµÐ¼Ñĥ": 4973,
      "ĠÐ³Ð¾Ð²Ð¾ÑĢÑı": 4974,
      "Ð²ÐµÐ·": 4975,
      "Ð³ÑĢÐ°ÑĦ": 4976,
      "ument": 4977,
      "¾Ð±Ð": 4978,
      "Ġbased": 4979,
      "ĠÑįÑĦÑĦÐµÐºÑĤÐ¸Ð²Ð½Ð¾": 4980,
      "ÐłÐµ": 4981,
      "ĠÐ·Ð°ÐºÐ¾Ð½": 4982,
      "ĠÑģÐ¸ÑĤÑĥÐ°ÑĨÐ¸Ð¸": 4983,
      "Ġorig": 4984,
      "ÑĩÐ¸Ðº": 4985,
      "Ð¿Ð¾Ð²": 4986,
      "ĠÐºÐ°ÑĩÐµÑģÑĤÐ²Ð°": 4987,
      "ĠÐ´Ð¾ÐºÑĥÐ¼ÐµÐ½ÑĤÐ°": 4988,
      "Ġgames": 4989,
      "ĠÑĢÐ°ÑģÐ¿ÑĢÐ¾ÑģÑĤÑĢÐ°": 4990,
      "Ġcou": 4991,
      "Ġpot": 4992,
      "Ð»Ð¾Ð³Ð°": 4993,
      "Ġinvol": 4994,
      "ividual": 4995,
      "ÑĪÐµÐº": 4996,
      "ĠÐ¿ÑĢÑıÐ¼Ð¾": 4997,
      "oon": 4998,
      "ÑĤÐ¸Ñ": 4999,
      "ÑĤÐ¸ÑĤ": 5000,
      "EN": 5001,
      "But": 5002,
      "ĠÐĵÐ°": 5003,
      "ĠÑĥÐ±Ðµ": 5004,
      "ĠEn": 5005,
      "ÑģÐ½Ñı": 5006,
      "ĠÑĥÑģÐ»ÑĥÐ³": 5007,
      "Ġpoints": 5008,
      "ĠÐ¼Ð¸ÑĢÐµ": 5009,
      "ÑģÑĤÐ½ÑĭÐµ": 5010,
      "ÑĤÐµÑģÑĮ": 5011,
      "ÑĤÐº": 5012,
      "ĠÐ´Ð°Ð½Ð½ÑĭÐµ": 5013,
      "Ð¾Ð¿Ð°": 5014,
      "ĠÐ±ÐµÑĢÐµ": 5015,
      "ĠÐľÑĥ": 5016,
      "Ð»Ð¾Ð³Ð¸Ñı": 5017,
      "ination": 5018,
      "ĠÑģÐ½Ñı": 5019,
      "ĠÐºÐ¾Ð½ÐºÑĢÐµ": 5020,
      "wh": 5021,
      "What": 5022,
      "raft": 5023,
      "ÑĪÐ¸Ð¼Ð¸": 5024,
      "ĠÐļÐ¾Ð½": 5025,
      "ĠPres": 5026,
      "ĠÐ¿ÑĢÐ°Ð²Ð¸Ð»Ð¾": 5027,
      "Ð½ÐµÑĢÐ°": 5028,
      "¾Ð½Ð¾Ð²": 5029,
      "ĠÑģÑĥÐ´": 5030,
      "ĠÐ¿Ð¾ÐºÑĥÐ¿": 5031,
      "Ġactually": 5032,
      "ĠÑĥÐ´Ð¸": 5033,
      "ĠÑĤÐ¾ÑĩÐ½Ð¾": 5034,
      "Ġclear": 5035,
      "ĠÐ¿Ð¾Ð»Ð½Ð¾": 5036,
      "ĠÐ·Ð²Ñĥ": 5037,
      "____": 5038,
      "ĠÐ¿Ð¾ÑĢÐ¾": 5039,
      "ĠÐºÑĢÑĥÐ¿Ð": 5040,
      "Ð²Ð»ÐµÐ½Ð¸ÐµÐ¼": 5041,
      "ĠÐ´Ð¾ÑģÑĤÑĥÐ¿": 5042,
      "Ġquestion": 5043,
      "ĠÐ½ÐµÐºÐ¾ÑĤÐ¾ÑĢÑĭÐ": 5044,
      "ĠÐ½ÐµÐºÐ¾ÑĤÐ¾ÑĢÑĭÐµ": 5045,
      "Ġenjoy": 5046,
      "Ġpossible": 5047,
      "ĠÑĦÐ¾ÑĢÐ¼Ñĥ": 5048,
      "ĠÑģÐ°Ð¹ÑĤÐ°": 5049,
      "ÐºÐ¾Ð¼Ð¸": 5050,
      "ĠÑģÑĤÑĢÐ°ÑħÐ¾": 5051,
      "ĠÑįÑĤÐ¾Ð¼Ñĥ": 5052,
      "ĠÑģÐ¾ÑĨÐ¸Ð°": 5053,
      "ĠÑģÐ»ÑĥÑĩÐ°ÑıÑħ": 5054,
      "ĠÐ¿Ð¾ÑħÐ¾": 5055,
      "Ġcreat": 5056,
      "ĠÐĹÐ": 5057,
      "µÐ¾Ð±": 5058,
      "Ġsaf": 5059,
      "ĠÐºÑĢÐ°Ð¹": 5060,
      "Ġmater": 5061,
      "ĠÑĤÑĢÑĥÐ´Ð¾": 5062,
      "Ð»ÑıÑħ": 5063,
      "âĤ¬": 5064,
      "ĠÐ¸ÑģÐ¿Ñĭ": 5065,
      "Ġhalf": 5066,
      "ape": 5067,
      "µÐ½Ð½Ð¸": 5068,
      "ring": 5069,
      "ĠWith": 5070,
      "raw": 5071,
      "ÑĤÐµÐº": 5072,
      "ĠÐ·Ð°Ð¿ÑĢÐµ": 5073,
      "Ġcheck": 5074,
      "ÑģÑĤÑĢÑĭ": 5075,
      "ĠCity": 5076,
      "Ġhot": 5077,
      "Ġreason": 5078,
      "ĠÐ¿ÐµÐ½": 5079,
      "Ġtre": 5080,
      "Ġpage": 5081,
      "ĠÐ½ÐµÐ¿Ð¾": 5082,
      "23": 5083,
      "ĠÐ°Ñĥ": 5084,
      "Ġmonths": 5085,
      "Ð½ÐµÑģÐ": 5086,
      "ille": 5087,
      "Ġwa": 5088,
      "ÑĤÐ¸Ð²Ð°": 5089,
      "inc": 5090,
      "ĠCal": 5091,
      "ÐĺÐ": 5092,
      "ĠÑĪÐµ": 5093,
      "Ð»Ð°Ð¼Ð¸": 5094,
      "ĠÐ¼Ð¸ÐºÑĢÐ¾": 5095,
      "Ġappear": 5096,
      "ĠÐ¼Ð¸ÑĢÐ¾": 5097,
      "ograph": 5098,
      "ÐŁÐµ": 5099,
      "ĠÑģÐ¸Ð¼Ð¿ÑĤÐ¾": 5100,
      "ĠÐ±Ð»Ð¸Ð·": 5101,
      "lish": 5102,
      "ÑĢÐ¶Ð°": 5103,
      "ÑĤÐ°Ð½": 5104,
      "ĠÐ²ÑĤÐ¾ÑĢÐ¾Ð¹": 5105,
      "ĠÐºÐ°Ð¶Ð´Ð¾Ð³Ð¾": 5106,
      "ĠÑģÐ¿ÑĢÐ¾": 5107,
      "Ġproblem": 5108,
      "An": 5109,
      "Ġtreat": 5110,
      "ĠÑģÑĤÐ°Ð½Ð¾Ð²Ð¸ÑĤÑģÑı": 5111,
      "Ġmeans": 5112,
      "Ð¼ÑĭÑĪÐ»Ð": 5113,
      "ai": 5114,
      "There": 5115,
      "Ġfoc": 5116,
      "ĠÑģÐ¾Ð±ÑĢÐ°": 5117,
      "Ġdiscuss": 5118,
      "Ð¡Ð¡": 5119,
      "Ð²ÐµÑĤÐ°": 5120,
      "Ġaccount": 5121,
      "Ð¶Ð½Ð¾Ð³Ð¾": 5122,
      "ĠÐ»ÑİÐ±Ñĭ": 5123,
      "ÑĩÐ¸ÑĤÑĭ": 5124,
      "ĠÐ¾Ð´Ð½Ð¸Ð¼": 5125,
      "ĠÐ´Ð²Ð¸Ð³Ð°": 5126,
      "Ġsum": 5127,
      "Ð½Ð¸ÐºÐ¾Ð¼": 5128,
      "ĠÐ¸Ð¼Ðµ": 5129,
      "ÐµÐ³Ð¾Ð´Ð½Ñı": 5130,
      "ource": 5131,
      "ÑĤÐ±Ð¾": 5132,
      "ÐľÐµ": 5133,
      "Ġey": 5134,
      "ĠÑĥÐ½Ð¸Ð²ÐµÑĢ": 5135,
      "Ġmom": 5136,
      "Ġprob": 5137,
      "Ð²ÑĪÐµÐ³Ð¾": 5138,
      "Ġcompet": 5139,
      "ÑĪÐ»Ð¾": 5140,
      "AL": 5141,
      "ĠÐ´ÐµÑĤÐ°": 5142,
      "Ð¤Ð": 5143,
      "ĠÑĢÐ°Ð±Ð¾ÑĤÐ°ÐµÑĤ": 5144,
      "ĠÐ¿Ð¾ÑģÑĤÐ¾ÑıÐ½Ð½Ð¾": 5145,
      "ĠÐ½Ð¾Ð²ÑĭÐ¹": 5146,
      "wards": 5147,
      "Ð´Ð¸Ð¸": 5148,
      "Ð½Ð¸ÑĨÑĥ": 5149,
      "ĠÑĤÑĢÐµÑħ": 5150,
      "Ġvisit": 5151,
      "Ð¿Ð¸ÑģÑĭ": 5152,
      "yle": 5153,
      "ÐĿÐĺ": 5154,
      "Ġvideo": 5155,
      "ĠNe": 5156,
      "ĠÑĢÐ°Ð·Ð²Ð¸ÑĤÐ¸Ðµ": 5157,
      "ĠÑĤÑĢÐµÐ±Ð¾Ð²Ð°Ð½Ð¸Ñı": 5158,
      "ÑģÑģÑĭ": 5159,
      "ĠÐ¼Ð»Ð½": 5160,
      "ĠÐ±ÑĥÐ¼Ð°": 5161,
      "ÑĨÐµÐ¿": 5162,
      "ÑĨÐ¸Ð¾Ð½Ð½Ð¾Ð¹": 5163,
      "icy": 5164,
      "Ð²ÐµÐ´": 5165,
      "°Ð¼ÐµÑĢÐ¸ÐºÐ°Ð½": 5166,
      "ĠÐ±Ð»Ð°Ð³Ð¾Ð´Ð°ÑĢÑı": 5167,
      "ĠÐ¡Ð¸": 5168,
      "ÐµÐ¼ÑĭÑħ": 5169,
      "ĠÐĴÐ»Ð°Ð´Ð¸Ð¼Ð¸": 5170,
      "Ð¸ÐµÐ¹": 5171,
      "Ð´ÐµÑĤÑģÑı": 5172,
      "sw": 5173,
      "Ġauthor": 5174,
      "ĠÐ¼ÐµÐ½ÑĮÑĪÐµ": 5175,
      "Ġtry": 5176,
      "Ġfield": 5177,
      "ĠÐ´Ð¸ÑĢÐµ": 5178,
      "Ġstarted": 5179,
      "ential": 5180,
      "ĠÐºÐ°Ð¿Ð¸ÑĤÐ°": 5181,
      "ĠÐ¸Ð½ÑĦÐ¾ÑĢÐ¼Ð°ÑĨÐ¸Ñİ": 5182,
      "80": 5183,
      "Ð»ÐµÐ½Ð¾": 5184,
      "ÑĥÐ¼": 5185,
      "ĠÐ¿ÑĢÐ¾Ð¸Ð·Ð²Ð¾Ð´ÑģÑĤÐ²Ð°": 5186,
      "ĠÑĢÐ°Ð¼ÐºÐ°Ñħ": 5187,
      "ĠÐĴÐ¾Ð·": 5188,
      "Ð½Ð½Ð¾ÑģÑĤÑĮ": 5189,
      "ĠÑĢÐ°ÑģÑĪÐ¸": 5190,
      "ĠÐ´Ð¾Ð¼": 5191,
      "ĠÐ½Ð°Ð¿ÑĢÑı": 5192,
      "ĠÐ¾Ð±ÑĢÐ°Ð·Ð¾Ð²Ð°Ð½Ð¸Ñı": 5193,
      "ĠÑģÐ¾ÑģÑĤÐ¾": 5194,
      "Ġlow": 5195,
      "ĠÐ½ÐµÐ²Ð¾Ð·": 5196,
      "iam": 5197,
      "ĠÐºÐ¸ÑģÐ»Ð¾": 5198,
      "ĠÑĢÐµÐ°Ð»ÑĮÐ½Ð¾": 5199,
      "Ð¶Ð¸Ñ": 5200,
      "Ð¶Ð¸ÑĤ": 5201,
      "ĠÐ½Ð¸ÐºÐ¾Ð³Ð´Ð°": 5202,
      "Ð»ÑĭÑĪÐ°": 5203,
      "ÐĴÐ°": 5204,
      "rap": 5205,
      "Ġconnect": 5206,
      "ĠÑĤÐ¸Ð¿Ð°": 5207,
      "Ð»Ð¸Ðº": 5208,
      "ĠEd": 5209,
      "Ġparticular": 5210,
      "vironment": 5211,
      "µÐ½ÐºÐ¸": 5212,
      "Ð¼ÑĭÐ¹": 5213,
      "Ġfriends": 5214,
      "ĠÐºÐ¾ÑĤÐ¾ÑĢÑĭÐ¼": 5215,
      "ĠÐ¾ÑĤÐºÐ°Ð·Ð°": 5216,
      "Ġprop": 5217,
      "ĠÐĵÐ»Ð°": 5218,
      "IS": 5219,
      "ĠÐ´ÐµÐºÐ°": 5220,
      "70": 5221,
      "ĠTw": 5222,
      "ĠÐ¿ÑĢÐ¾Ð³ÑĢÐ°Ð¼Ð¼Ñĭ": 5223,
      "ĠÐ¿Ð¾Ð»ÑĮÐ·Ñĥ": 5224,
      "ĠGu": 5225,
      "ĠÑģÐ²Ð¸Ð´Ðµ": 5226,
      "Ð²Ð°Ð»ÑģÑı": 5227,
      "Ð¼Ð±": 5228,
      "ĠÑĥÐ²ÐµÐ»Ð¸ÑĩÐ¸": 5229,
      "fort": 5230,
      "ÑģÐ¼Ð¾ÑĤÑĢÑı": 5231,
      "ĠÐ²ÑĭÐ³Ð»Ñı": 5232,
      "ĠÐ²Ð·Ñı": 5233,
      "Ð½ÐºÐ¾": 5234,
      "Ð¼ÐµÑĪÐ°": 5235,
      "Ð½ÐµÐ½Ð¸Ð¹": 5236,
      "Ð¶ÐµÑĤÑģÑı": 5237,
      "Ġopport": 5238,
      "ĠÑħÐ¾Ð·ÑıÐ¹": 5239,
      "Ð»Ð»Ðµ": 5240,
      "Ġneeds": 5241,
      "ÑĩÐµÑģÐºÐ¾Ð¼": 5242,
      "ÑĤÐ¸Ð»Ð¸": 5243,
      "ÑĤÐ¸Ð²Ð½ÑĭÐµ": 5244,
      "ĠÐĽÐ°": 5245,
      "Ġclose": 5246,
      "ued": 5247,
      "lev": 5248,
      "ĠÑĢÐµÑģÑĥÑĢ": 5249,
      "urch": 5250,
      "hers": 5251,
      "ÑĤÐµÑĢÐ¸ÑģÑĤÐ¸": 5252,
      "ensive": 5253,
      "ĠÐ¸ÑģÐ¿Ð¾Ð»ÑĮÐ·Ð¾Ð²Ð°Ð½Ð¸Ñı": 5254,
      "ÑīÐµÐ¼": 5255,
      "Ġseen": 5256,
      "ÑĩÐ°Ð¹": 5257,
      "ging": 5258,
      "ÑģÐ»ÐµÐ´": 5259,
      "ĠÑĥÐ¼ÐµÐ½ÑĮ": 5260,
      "ĠÑģÑĤÐ¾Ð¸Ð¼Ð¾ÑģÑĤÑĮ": 5261,
      "ĠÐ¿ÑĭÑĤÐ°": 5262,
      "ĠÐ¿ÑĢÐµÐ¸Ð¼ÑĥÑīÐµ": 5263,
      "Ġ29": 5264,
      "anks": 5265,
      "ĠÑĢÐµÐ·": 5266,
      "ĠÑĢÐµÐ³Ð¸ÑģÑĤÑĢÐ°ÑĨÐ¸Ð¸": 5267,
      "ĠÐ¼Ð¾Ð´ÐµÐ»Ð¸": 5268,
      "ĠJan": 5269,
      "Ġopt": 5270,
      "¾Ð¿Ð¸ÑģÐ°": 5271,
      "ĠNational": 5272,
      "Ġgiven": 5273,
      "Ġpress": 5274,
      "ĠOne": 5275,
      "ĠÑģÐ¾Ð²Ð¼Ðµ": 5276,
      "Ð»ÐµÑĤÐ°": 5277,
      "Ġdevelopment": 5278,
      "Ġfuture": 5279,
      "urity": 5280,
      "aces": 5281,
      "resent": 5282,
      "ÑģÑĤÐ²ÐµÐ½Ð½ÑĭÐ¼": 5283,
      "ĠÐºÐ¾Ð¶Ð¸": 5284,
      "idence": 5285,
      "ÑģÑĥÐ»ÑĮÑĤÐ°": 5286,
      "ĠÐ¿Ð¾Ð´ÑĤÐ²ÐµÑĢÐ¶": 5287,
      "ĠÐ¿Ð¾Ð²ÑĤÐ¾": 5288,
      "ĠÐ½Ð°ÑĨÐ¸Ð¾Ð½Ð°": 5289,
      "ĠÑĢÑĥÑģ": 5290,
      "ĠÐ¸Ð¼ÐµÑĤÑĮ": 5291,
      "ÑģÐµÑĢ": 5292,
      "ĠÑĢÐ°ÑģÐ¿Ð¾Ð»Ð¾Ð¶Ð": 5293,
      "ĠÐºÐ¾Ð»Ð¾": 5294,
      "Ð½Ð´Ð¾": 5295,
      "Ð´Ð½ÑĭÐ¼": 5296,
      "unch": 5297,
      "Ġminutes": 5298,
      "ĠÐºÑĢÐ¾Ð²Ð¸": 5299,
      "Ġstrong": 5300,
      "ĠÑĤÐµÐ±Ñı": 5301,
      "Ġindividual": 5302,
      "Ð¾Ð¿Ð¸ÑģÐ°": 5303,
      "ĠÐ¿ÑĢÐ¾Ð¶Ð¸": 5304,
      "ĠÐ¿ÑĢÐ¸ÑģÑĥÑĤ": 5305,
      "¾Ð±Ð¸": 5306,
      "Ð¿Ð¾Ð¼Ð¸Ð½Ð°": 5307,
      "ĠÑģÐ¾Ð¾Ð±ÑīÐ¸": 5308,
      "Ġbody": 5309,
      "ĠÐ¿Ð¾ÑĤÑĢÐµÐ±": 5310,
      "back": 5311,
      "ÑĬÐµÐº": 5312,
      "Ġmind": 5313,
      "´Ð¾": 5314,
      "Ð²Ð¾Ñģ": 5315,
      "ÑģÑĨÐ": 5316,
      "icro": 5317,
      "ully": 5318,
      "Ġdetail": 5319,
      "ĠÐĴÐ¾ÑĤ": 5320,
      "Ġblog": 5321,
      "ique": 5322,
      "ÑĢÐ¸Ð½Ð°": 5323,
      "Ġmor": 5324,
      "Ġsoft": 5325,
      "Ch": 5326,
      "ĠÑģÑĩÐ°": 5327,
      "ÑıÑģÑĮ": 5328,
      "indows": 5329,
      "ĠÐ¥Ð°": 5330,
      "ĠÑģÑĤÐ°Ð»Ð¾": 5331,
      "ĠÐ§ÑĤÐ¾Ð±Ñĭ": 5332,
      "iously": 5333,
      "Ġaut": 5334,
      "Ġsix": 5335,
      "Ġsound": 5336,
      "Ð·Ð¸Ð½": 5337,
      "ĠÐ¿ÑĢÐµÐ·Ð¸Ð´Ð": 5338,
      "Ð¥Ð": 5339,
      "ÑĢÐ±Ð°": 5340,
      "Ð±Ð¸Ð»Ð¸": 5341,
      "ĠÐ¸ÑģÑĤÐ¾ÑĢÐ¸Ð¸": 5342,
      "Ġworks": 5343,
      "ĠÑĥÑĢÐ¾Ð²Ð½Ñı": 5344,
      "ĠÑĥÑĩÐ": 5345,
      "ÑĩÐµÐ½Ð¸ÐµÐ¼": 5346,
      "play": 5347,
      "ĠÐ¿ÑĢÐ¾Ð±Ð»ÐµÐ¼": 5348,
      "Ð¼Ð¾ÑĤÑĢÐ¸": 5349,
      "ĠÐ¸Ð½Ð²ÐµÑģÑĤÐ¸": 5350,
      "ĠÑĤÑĢÐ¾": 5351,
      "ĠÐ²Ð¸Ð´Ð°": 5352,
      "unic": 5353,
      "go": 5354,
      "¾ÑĢÐ°": 5355,
      "ĠÐ¾Ð¿Ð¸ÑģÐ°": 5356,
      "par": 5357,
      "ights": 5358,
      "ÐµÑħÐ°": 5359,
      "ĠÐ½Ð°ÐºÐ¾": 5360,
      "Ġmult": 5361,
      "ĠDr": 5362,
      "load": 5363,
      "Ð°Ð¼ÐµÑĢÐ¸ÐºÐ°Ð½": 5364,
      "Ġbelieve": 5365,
      "urther": 5366,
      "ĠÐ²Ð¾Ð·Ð¼Ð¾": 5367,
      "ĠÑĥÑĩÑĢÐµ": 5368,
      "Ġquick": 5369,
      "Ð´Ð¸Ð¾": 5370,
      "ÑĢÐ½ÑĭÐ¼": 5371,
      "ĠÑģÐµÑĢÐ²Ð¸": 5372,
      "ĠÐ¼Ð»": 5373,
      "ources": 5374,
      "ĠÑĢÐ°ÑģÑĤÐ²Ð¾": 5375,
      "ĠMe": 5376,
      "Ð½Ð´Ð°ÑĢ": 5377,
      "ĠÑĢÑĥÑģÑģ": 5378,
      "Ġbring": 5379,
      "Ġbenef": 5380,
      "verage": 5381,
      "ÑģÐºÑĥ": 5382,
      "Ġhours": 5383,
      "illed": 5384,
      "ÑĢÐ¾Ð²ÐºÐ¸": 5385,
      "ĠÐ¾Ð¿Ð°": 5386,
      "Ġcontact": 5387,
      "ĠÐ¸Ð·Ð¾Ð±ÑĢÐ°": 5388,
      "ĠÐ·Ð½Ð°ÑĩÐ¸Ñ": 5389,
      "ĠÐ·Ð½Ð°ÑĩÐ¸ÑĤ": 5390,
      "ffic": 5391,
      "ĠÐºÐµ": 5392,
      "Ð·Ð¸Ð¸": 5393,
      "ÐºÐ»Ð°Ð´": 5394,
      "though": 5395,
      "Ġclaim": 5396,
      "ÑĮÐ¸": 5397,
      "ĠÑħÐ¾ÑĤÐµ": 5398,
      "Ð·ÐµÑĢ": 5399,
      "Ġcomes": 5400,
      "yr": 5401,
      "Ġacross": 5402,
      "ĠÑģÐ»Ð¾Ð²Ð°Ð¼": 5403,
      "ung": 5404,
      "ĠÑĤÐºÐ°": 5405,
      "ÐĺÐ½": 5406,
      "ĠÐ·Ð°Ð±Ñĭ": 5407,
      "21": 5408,
      "Ġet": 5409,
      "Ð²ÐµÐ½": 5410,
      "Ġsocial": 5411,
      "Ð»ÐµÐ³": 5412,
      "Ð¡Ð¢": 5413,
      "Ð¾Ð±Ð¸": 5414,
      "ĠÐ¿ÑĢÐ¾Ð±Ð»ÐµÐ¼Ð°": 5415,
      "Ð»ÐµÐ½Ð": 5416,
      "Ġcomb": 5417,
      "Ð±ÑĢÐµ": 5418,
      "Ð´ÐµÑĢ": 5419,
      "ĠMin": 5420,
      "Ġhuman": 5421,
      "ĠÑģÐ¾Ð²ÐµÑĢÑĪÐµÐ½Ð½Ð¾": 5422,
      "ĠCenter": 5423,
      "ĠÑģÐ»Ð¸ÑĪÐºÐ¾Ð¼": 5424,
      "ĠStates": 5425,
      "ips": 5426,
      "ĠÑĩÐµÑĤÑĭÑĢÐµ": 5427,
      "Ġexample": 5428,
      "ĠÑıÐ½Ð²Ð": 5429,
      "ÑĨÐ¸ÑıÑħ": 5430,
      "ĠWorld": 5431,
      "ĠÐ´ÐµÐ¹ÑģÑĤÐ²Ð¸ÑĤÐµÐ»ÑĮÐ½Ð¾": 5432,
      "ĠÐ¼ÑĭÑĪ": 5433,
      "Ġ2007": 5434,
      "Ð¿Ð»Ñĥ": 5435,
      "ĠÐ½ÐµÐºÐ¾ÑĤÐ¾ÑĢÑĭÑħ": 5436,
      "µÐ´Ð¸Ð½": 5437,
      "ĠÐ²ÑģÑİ": 5438,
      "ÐºÑĤÐ¾ÑĢÐ°": 5439,
      "ulation": 5440,
      "ÑİÑīÐ¸Ð¼Ð¸": 5441,
      "ĠÐ¿Ð¾Ð²Ð¾": 5442,
      "ÐµÐ´Ð¸Ð½": 5443,
      "ĠÐ¾Ð±ÑĢÐ°Ð·": 5444,
      "Ġant": 5445,
      "Ġanything": 5446,
      "ĠÑģÐµÐº": 5447,
      "ĠÑĥÑģÐ¿ÐµÑĪ": 5448,
      "ÑĦÐ¸ÑĨÐ¸": 5449,
      "fer": 5450,
      "Ð²Ð¸ÑĤÑĮÑģÑı": 5451,
      "Ð²Ð½Ð¾Ð³Ð¾": 5452,
      "Ġpriv": 5453,
      "Ġfilm": 5454,
      "ĠÑģÐ¾Ð±Ð¸ÑĢÐ°": 5455,
      "Ġeasy": 5456,
      "ÑĩÐ°ÑİÑĤ": 5457,
      "Ġoffer": 5458,
      "ĠMr": 5459,
      "Ph": 5460,
      "ĠInst": 5461,
      "ĠÐ³Ð¾Ð´Ñĭ": 5462,
      "ĠÑģÐº": 5463,
      "ÑĢÐºÐ¾Ð²": 5464,
      "Ð²Ð»ÐµÐ½Ñĭ": 5465,
      "ift": 5466,
      "Ġbegin": 5467,
      "ĠÐĶÑĥ": 5468,
      "irc": 5469,
      "cri": 5470,
      "Ð½ÐµÐ½Ð¸Ð¸": 5471,
      "ĠÐ±ÐµÑĢÐµÐ¼ÐµÐ½Ð": 5472,
      "yl": 5473,
      "Ð¾Ð´Ð¸": 5474,
      "ches": 5475,
      "tty": 5476,
      "ÑĩÐµÑģÑĤÐ²Ð°": 5477,
      "ÑĤÐ¸ÑĩÐµÑģÐºÐ¾Ð¹": 5478,
      "ĠÐ¼ÐµÑģÑıÑĨÐµÐ²": 5479,
      "ĠÐ§Ð°": 5480,
      "IT": 5481,
      "Ð¾ÑģÑĤÐ¾": 5482,
      "ÑĤÐ°ÑĤÑĮ": 5483,
      "ned": 5484,
      "Ġproducts": 5485,
      "ĠÐ¼Ð¸ÑĢ": 5486,
      "ĠÑģÐ¾ÑģÑĤÐ°Ð²": 5487,
      "Ġhistory": 5488,
      "cially": 5489,
      "Ð½Ð³Ðµ": 5490,
      "ĠÑĩÐ°ÑīÐµ": 5491,
      "Ð¶Ð¾": 5492,
      "Ġwhether": 5493,
      "Ġvol": 5494,
      "ĠÑģÑĤÐ°Ð»Ð°": 5495,
      "ĠÑģÐ±Ð¾": 5496,
      "ĠÐ¿ÑĥÐ±Ð»Ð¸": 5497,
      "ÑĩÐ¸ÑģÐ»Ð": 5498,
      "Ġamong": 5499,
      "ĠÐ²Ð°ÑĢÐ¸Ð°Ð½Ñ": 5500,
      "ĠÐ²Ð°ÑĢÐ¸Ð°Ð½ÑĤ": 5501,
      "Ð³Ð½Ð¾ÑģÑĤÐ¸": 5502,
      "ÑģÑĤÐ¸ÑĤÑĮ": 5503,
      "ĠÐ´Ð°Ð»ÑĮÐ½ÐµÐ¹": 5504,
      "ĠÐ¿Ð¾ÑĤÐ¾": 5505,
      "ĠEuro": 5506,
      "ĠÐ¾Ð±ÑĢÐ°ÑīÐ°": 5507,
      "ĠÑİÑĢÐ¸Ð´Ð¸": 5508,
      "ĠÐ²ÑĭÐ³Ð¾": 5509,
      "ÑĤÐ¸Ñİ": 5510,
      "ĠÑĢÑĥÐºÐ¸": 5511,
      "Ð´ÐµÑĤÐµ": 5512,
      "ĠServ": 5513,
      "ĠÐ¾Ð±ÑĢÐ°Ð±Ð¾": 5514,
      "my": 5515,
      "Ð¼ÐµÑĢÐµ": 5516,
      "year": 5517,
      "oe": 5518,
      "ĠÐ´Ð¾ÐºÑĥÐ¼ÐµÐ½ÑĤÐ¾Ð²": 5519,
      "ĠÐ¿ÑĢÐµÐ´Ð¿ÑĢÐ¸Ð½Ð¸Ð¼Ð°": 5520,
      "ĠGe": 5521,
      "ided": 5522,
      "ĠÑģÐµÐ·Ð¾": 5523,
      "ĠÑĢÐ°Ð·Ð°": 5524,
      "ĠÑģÐ°Ð¼Ð¾Ð": 5525,
      "ĠÑĢÐµÐ°Ðº": 5526,
      "Ð»Ð¸Ð·Ð¾": 5527,
      "ĠÐ¿Ð¾Ð»ÑĥÑĩÐµÐ½Ð¸Ñı": 5528,
      "ĠÐ¿ÑĢÐ¸ÑħÐ¾Ð´Ð¸": 5529,
      "Ġtot": 5530,
      "Ġknown": 5531,
      "Ġthird": 5532,
      "ĠÐ¿Ð°ÑĢÑĤ": 5533,
      "Ġdeb": 5534,
      "Ð»ÐºÑĥ": 5535,
      "ÑģÑĤÐ²Ð¸ÐµÐ¼": 5536,
      "nes": 5537,
      "ences": 5538,
      "Ð³Ð¸ÑģÑĤÑĢÐ¸": 5539,
      "ibr": 5540,
      "ĠÑģÐµÐ¼ÐµÐ¹": 5541,
      "iod": 5542,
      "ĠÐ½Ð°ÑĪ": 5543,
      "Ġbad": 5544,
      "ĠÐ²ÑĭÐ±ÑĢÐ°ÑĤÑĮ": 5545,
      "ĠÐ·Ð°Ð²ÐµÑĢ": 5546,
      "Ð¿Ð¾ÑĢ": 5547,
      "Ġwhole": 5548,
      "ĠÐ¢Ñĥ": 5549,
      "ĠÐ¾Ð±ÑģÑĥ": 5550,
      "45": 5551,
      "ĠÑģÐ°Ð¼ÑĭÐ": 5552,
      "Ð»Ð¸Ð½Ð°": 5553,
      "ĠÑģÐ°Ð¼ÑĭÐµ": 5554,
      "Ġpersonal": 5555,
      "ster": 5556,
      "ĠÑĥÐ¿Ð¾ÑĤÑĢÐµÐ±": 5557,
      "ĠComp": 5558,
      "Ġface": 5559,
      "26": 5560,
      "Ð»ÐµÐ¶Ð°": 5561,
      "ĠSchool": 5562,
      "ĠÐ¼Ð°ÑĤÐµÑĢÐ¸Ð°Ð»Ð¾Ð²": 5563,
      "ĠÐ´ÐµÐ½ÐµÐ³": 5564,
      "ĠÐ±Ð¾ÑĢÑĮ": 5565,
      "Ġanal": 5566,
      "ĠÐ°Ð¼ÐµÑĢÐ¸ÐºÐ°Ð½": 5567,
      "www": 5568,
      "ĠÑģÑĤÑĢÐ¾": 5569,
      "ĠÐ²Ð½ÑĥÑĤÑĢÐ¸": 5570,
      "Ð¾Ð±Ð": 5571,
      "Ð¶Ð½ÑĭÐ¼": 5572,
      "ĠÐ¾Ð±ÑĬÐ": 5573,
      "ĠÐ¾Ð±ÑĬÐµ": 5574,
      "ED": 5575,
      "cial": 5576,
      "ĠÑĥÑģÐ»ÑĥÐ³Ð¸": 5577,
      "ĠWill": 5578,
      "ĠÐ¼ÐµÐ´": 5579,
      "Ġwebsite": 5580,
      "Ġz": 5581,
      "Ġra": 5582,
      "ÑģÐ°Ð¼Ð¸": 5583,
      "ĠÐ¼Ð°ÑĪÐ¸": 5584,
      "Ġhig": 5585,
      "now": 5586,
      "ÑĩÐµÑģÐºÑĥÑİ": 5587,
      "ĠÐ½Ð¸Ð¶Ðµ": 5588,
      "ĠCont": 5589,
      "77": 5590,
      "ÑĢÐ¸Ð½": 5591,
      "Ġheart": 5592,
      "ÑĤÐ¸Ð²Ð½Ð¾Ð¹": 5593,
      "ĠHar": 5594,
      "Ġaddress": 5595,
      "ĠÐºÐ»Ñİ": 5596,
      "ÐĺÐ·": 5597,
      "¸Ð´ÐµÑĤ": 5598,
      "ĠÑģÐ»ÑĥÑĩÐ°Ð¹": 5599,
      "Ġseries": 5600,
      "ural": 5601,
      "ÑĢÐ¾Ð¼Ð°": 5602,
      "ĠÐľÐ¾ÑģÐºÐ²Ðµ": 5603,
      "elt": 5604,
      "Ð¸Ð´ÐµÑĤ": 5605,
      "Ð°Ð»ÑĮ": 5606,
      "Ġmain": 5607,
      "ÑħÐ¾Ð´Ð¾Ð²": 5608,
      "Ġ2019": 5609,
      "ĠSec": 5610,
      "Ġwalk": 5611,
      "Ð»Ð¾Ð²Ð°": 5612,
      "ĠÐ²ÑĭÑģÑĤÐ°": 5613,
      "Ġjo": 5614,
      "³Ð»Ð°": 5615,
      "isk": 5616,
      "ÑĤÐµÑħ": 5617,
      "ĠÐŁÑĢÐµÐ´": 5618,
      "Ġ#": 5619,
      "ĠÑģÐ¿Ð¾ÑģÐ¾Ð±Ð": 5620,
      "ĠNot": 5621,
      "ĠÐºÐ»Ð°ÑģÑģÐ¸": 5622,
      "ĠÑĤÐ²Ð¾ÑĢ": 5623,
      "ĠÐ¸Ð´ÐµÑĤ": 5624,
      "Ð»ÑıÑĤÑĮ": 5625,
      "Ġconcer": 5626,
      "ĠÑģÐµÑĤÐ¸": 5627,
      "ĠÐ¿Ð°ÑĤÐ¾": 5628,
      "ĠÑģÐµÐ½ÑĤ": 5629,
      "¸Ð¼Ð¸": 5630,
      "ĠÑģÐ°Ð¼Ð¾Ð³Ð¾": 5631,
      "ĠÐ½Ð°ÑĪÐ¸Ñħ": 5632,
      "ÑĢÐ³Ð¸": 5633,
      "Ġident": 5634,
      "Ð´ÐµÐ»Ð": 5635,
      "ĠÐ¿Ð¾Ð²ÑĭÑĪÐ": 5636,
      "ĠÑģÐ¾ÑģÑĤÐ¾ÑıÐ½Ð¸Ðµ": 5637,
      "Ġfre": 5638,
      "Ð¼ÑĭÐ¼": 5639,
      "ĠÐ¿Ð»Ð°ÑģÑĤÐ¸": 5640,
      "abor": 5641,
      "ÑĤÐ°Ð¹": 5642,
      "ole": 5643,
      "ÐµÑĪÑĮ": 5644,
      "Ð·ÐµÐ¹": 5645,
      "Ġquality": 5646,
      "Ð½ÑĤ": 5647,
      "ners": 5648,
      "ĠÐ½Ð°ÑĪÐµÐ¼": 5649,
      "ÑģÐ¿ÐµÐº": 5650,
      "roll": 5651,
      "ĠÐ²Ð¾ÑģÐ¿Ð¾": 5652,
      "umb": 5653,
      "Ð²ÑģÐµ": 5654,
      "ĠÐºÐ°ÑĤÐ°": 5655,
      "Ġshare": 5656,
      "ÑıÑĤÑģÑı": 5657,
      "Ð²Ð¾Ð±Ð¾": 5658,
      "ÐĶÐµ": 5659,
      "ĠÑģÐ¾Ð±Ð»Ñİ": 5660,
      "ĠChe": 5661,
      "Ð³Ð¾Ð²": 5662,
      "ĠÐ²Ð·Ð°Ð¸Ð¼Ð¾": 5663,
      "ĠÐ³Ð¾ÑĤÐ¾Ð²": 5664,
      "che": 5665,
      "µÐ½Ð½Ð¾ÑģÑĤÑĮ": 5666,
      "Ð´Ð¸Ñı": 5667,
      "ÑĪÐºÑĥ": 5668,
      "ilar": 5669,
      "ĠÐ¾Ð´Ð¸": 5670,
      "ĠDep": 5671,
      "ĠÐ»ÐµÑĩÐµÐ½Ð¸Ðµ": 5672,
      "ĠOb": 5673,
      "ĠÐ¿ÑĢÐ¸Ð²Ñĭ": 5674,
      "ĠÐ¼Ð°ÑĪ": 5675,
      "ĠÑģÐ°Ð¼Ð¾Ðµ": 5676,
      "Ġeither": 5677,
      "ĠÐĿÐ¸ÐºÐ¾": 5678,
      "ĠÐ´Ð²Ð¸Ð¶ÐµÐ½Ð¸Ñı": 5679,
      "ĠÐ·Ð½Ð°ÐºÐ¾Ð¼": 5680,
      "ĠÑĤÐµÐ»Ð°": 5681,
      "ÑģÐ¾ÑĤ": 5682,
      "ĠÐ¿Ð¾Ð¼Ð¾ÑīÑĮ": 5683,
      "ĠÐ¾ÑĤÐ´Ð°": 5684,
      "Ð»Ð¾Ð¶Ð¸ÑĤÑĮ": 5685,
      "ÐµÐ¼ÑĭÐ": 5686,
      "ĠÐ²ÑĭÐ±Ð¾ÑĢ": 5687,
      "ÐµÐ¼ÑĭÐµ": 5688,
      "ĠÐ¿ÑĢÐ¾ÑģÑĤÑĢÐ°Ð½": 5689,
      "Ġpack": 5690,
      "ĠÐ¿Ð¾ÐºÐ¾": 5691,
      "99": 5692,
      "ÐºÐ°Ð·Ð°ÑĤÑĮ": 5693,
      "ĠÑĦÐ¾ÑĢÐ¼Ñĭ": 5694,
      "ÑģÑĤÑıÐ¼Ð¸": 5695,
      "ĠÐ¸Ð·Ð³Ð¾ÑĤÐ¾Ð²": 5696,
      "µÑģÑĤÐµ": 5697,
      "Ð½Ð¸ÐºÐ°Ð¼Ð¸": 5698,
      "ĠÐ¾ÐºÑĤÑı": 5699,
      "ĠÑĤÑĢÑĥÐ´Ð°": 5700,
      "ÐºÐµÑĤ": 5701,
      "ÑĪÐµÐ¼Ñĥ": 5702,
      "ÑģÑĤÐ½Ð¾Ð¹": 5703,
      "°Ð½Ð³": 5704,
      "Ġredu": 5705,
      "ĠÐ°Ð½ÑĤÐ¸": 5706,
      "Ġfront": 5707,
      "lf": 5708,
      "IC": 5709,
      "ps": 5710,
      "Ð»Ð°Ñı": 5711,
      "ateg": 5712,
      "ĠÐ¾Ð±Ð¸": 5713,
      "ĠÐ£Ðº": 5714,
      "ream": 5715,
      "ĠÐ¼Ð¼": 5716,
      "ators": 5717,
      "ĠÑģÐ°Ð¼Ð¾ÑģÑĤÐ¾ÑıÑĤÐµÐ»ÑĮÐ½Ð¾": 5718,
      "Ġmess": 5719,
      "ilities": 5720,
      "ÑģÐ°Ð¼": 5721,
      "¾ÐºÐ°Ð·Ñĭ": 5722,
      "Ð¾ÐºÐ°Ð·Ñĭ": 5723,
      "ĠÑģÐ°Ð¼ÑĭÐ¼": 5724,
      "Ġspecific": 5725,
      "ĠÐ¿ÑĢÐ¾Ð²ÐµÐ´ÐµÐ½Ð¸Ñı": 5726,
      "itted": 5727,
      "ÑİÑīÑĥÑİ": 5728,
      "ĠBar": 5729,
      "ĠÐ´Ð°Ð²Ð½Ð¾": 5730,
      "ĠÐ´Ð¾Ð»Ð»Ð°": 5731,
      "Ġbreak": 5732,
      "ĠÐ±Ð¾Ð": 5733,
      "ĠÑĢÐµÐ³ÑĥÐ»Ñı": 5734,
      "ĠÐ²Ð¾ÑģÐ¿Ð°": 5735,
      "ÑĤÑĥÑĢÐµ": 5736,
      "27": 5737,
      "ĠÑĢÐ°Ð¹Ð¾Ð½Ð°": 5738,
      "ĠÑĤÑĭÑģ": 5739,
      "³Ð¾ÑĤÐ¾": 5740,
      "ĠÐ¾ÐºÐ°Ð·Ñĭ": 5741,
      "ĠCounty": 5742,
      "ĠÐ¾ÑĢÐ³Ð°Ð½Ð¾Ð²": 5743,
      "Ġsomeone": 5744,
      "ÐłÐ°Ð·": 5745,
      "ĠÑĤÑĢÐµÑĤÑĮ": 5746,
      "Ġmiss": 5747,
      "ĠÐ¿ÑĢÐ°Ð²Ð¸Ð»Ð°": 5748,
      "ÑģÑĤÐ°ÑĤÐ¸": 5749,
      "Ġ80": 5750,
      "Ġalmost": 5751,
      "Ġsent": 5752,
      "Ġpie": 5753,
      "Ð»ÐºÐ¾": 5754,
      "ĠÐ¿Ð¾Ð³Ð¾": 5755,
      "Ġdou": 5756,
      "28": 5757,
      "ĠÑģÐ¿Ðµ": 5758,
      "ĠÑħÐ°ÑĢÐ°ÐºÑĤÐµÑĢÐ¸ÑģÑĤÐ¸": 5759,
      "Ġasked": 5760,
      "ĠÑģÐ½Ð¾Ð²Ð°": 5761,
      "ÐĴÐµ": 5762,
      "µÐ½Ð½Ð¾Ð¼": 5763,
      "ÑĤÑĥÑĢ": 5764,
      "ĠÐ½Ð°Ð¹": 5765,
      "ĠÐ½ÐµÐ´Ðµ": 5766,
      "ÑħÐ¾Ð´Ñĭ": 5767,
      "ĠÑĦÐ¾ÑĢÐ¼Ðµ": 5768,
      "ÑĤÐ¸Ð¼": 5769,
      "Ġtem": 5770,
      "ĠÐ°Ð¿Ð¿Ð°ÑĢÐ°": 5771,
      "ÐµÑģÑĤÐµ": 5772,
      "ĠÑĥÐ²ÐµÑĢÐµ": 5773,
      "ĠÐ²ÐºÐ»Ñİ": 5774,
      "ĠÐºÑĢÑĥÐ¿": 5775,
      "ÑģÑģÐ¸Ñı": 5776,
      "ĠÐ¼Ð¾Ð±Ð¸": 5777,
      "Ġwond": 5778,
      "ĠÐ¿ÑĢÐ¾ÐµÐºÑĤÐ°": 5779,
      "¾ÑĢ": 5780,
      "ĠÐ¾ÐºÐ¾Ð½ÑĩÐ°": 5781,
      "Ġenc": 5782,
      "ele": 5783,
      "Ġperfect": 5784,
      "ĠÐ¸ÑģÑģÐ»ÐµÐ´Ð¾Ð²Ð°Ð½Ð¸Ñı": 5785,
      "ĠÐ¼Ð°Ñ": 5786,
      "ĠÐµÐ´Ð¸Ð½": 5787,
      "ĠÐ²ÐµÑīÐ": 5788,
      "ĠÐ½Ð°ÑĪÐ¸": 5789,
      "ĠÑģÐ°Ð¼ÑĭÐ¹": 5790,
      "ĠÑģÑİ": 5791,
      "ÑģÑĤÐ¸Ð": 5792,
      "ÑĢÐ´Ðµ": 5793,
      "ĠÐ½Ð°Ð±Ð»ÑİÐ´Ð°": 5794,
      "Ð²Ð¾ÑģÑĤÐ¸": 5795,
      "Ġabove": 5796,
      "Ġred": 5797,
      "ĠÐ¶ÐµÐ½ÑīÐ¸Ð½Ñĭ": 5798,
      "ĠNorth": 5799,
      "ĠÐ¾Ð±Ð": 5800,
      "ÑĩÐ°ÑİÑĤÑģÑı": 5801,
      "ÑģÑĤÑĮÑı": 5802,
      "Ġsuper": 5803,
      "Ð°Ð½Ð³": 5804,
      "ĠSm": 5805,
      "ĠÐ¿Ð¾Ð¿Ñĭ": 5806,
      "Ġcrit": 5807,
      "selves": 5808,
      "µÐ¹ÑĩÐ°Ñģ": 5809,
      "±ÑĥÐ´ÑĮ": 5810,
      "ĠÐĳÐ¾Ð»ÑĮ": 5811,
      "ÑģÑĤÐ¾Ð¼": 5812,
      "ify": 5813,
      "ÑĤÐ¸Ð²Ð½Ð¾Ð³Ð¾": 5814,
      "ĠÐ¼Ð°ÑĤ": 5815,
      "ĠÑģÐ¸Ð»ÑĮÐ½Ð¾": 5816,
      "Ġrespons": 5817,
      "Ġsugg": 5818,
      "ĠÐ¿ÑĢÐµÑģÑĤÑĥÐ¿": 5819,
      "Ġsuggest": 5820,
      "Ð¼ÑĥÑİ": 5821,
      "Ġport": 5822,
      "Ġtrying": 5823,
      "Ġpubl": 5824,
      "ĠÑĤÑĢÐ°Ð²": 5825,
      "ĠÐ²Ð¿Ð¾Ð»Ð½Ðµ": 5826,
      "ĠÐ»Ð¸ÑĨ": 5827,
      "ĠÐ±ÑĢÐµ": 5828,
      "Ð½ÐµÑĤÐµ": 5829,
      "ĠÐ¼Ð°ÑĤÐµÑĢÐ¸Ð°Ð»Ð°": 5830,
      "room": 5831,
      "Ġbar": 5832,
      "ĠÐ¶ÐµÐ½ÑīÐ¸Ð½": 5833,
      "35": 5834,
      "°ÑĢÑı": 5835,
      "Ð¶ÐºÐ¸": 5836,
      "Ġpick": 5837,
      "utions": 5838,
      "Ġstay": 5839,
      "ĠÐ´ÑĢÑĥÐ³Ð°": 5840,
      "oogle": 5841,
      "Ð²Ð¾Ð´Ð¸Ñ": 5842,
      "Ð²Ð¾Ð´Ð¸ÑĤ": 5843,
      "ĠDo": 5844,
      "irt": 5845,
      "Ġsingle": 5846,
      "ĠÑģÐ¾Ð²ÑĢÐµÐ¼ÐµÐ½Ð½Ð¾": 5847,
      "ĠÐĿÐ°Ð¿ÑĢÐ¸Ð¼ÐµÑĢ": 5848,
      "Ġkey": 5849,
      "Ġpretty": 5850,
      "ĠÐ¿ÑĢÐµÐ´Ð¿ÑĢÐ¸ÑıÑĤÐ¸Ñı": 5851,
      "ĤÐ½Ð°Ñı": 5852,
      "ÑĤÐ½Ð°Ñı": 5853,
      "ÑİÑģÑĮ": 5854,
      "So": 5855,
      "Ð¼Ð½ÑĭÐµ": 5856,
      "%.": 5857,
      "ĠÐ¼Ð°ÑĢ": 5858,
      "Ð½ÐµÑģÑĤÐ¸": 5859,
      "ĠGo": 5860,
      "ĠÐļÐ¸": 5861,
      "Ġeverything": 5862,
      "icult": 5863,
      "Ġtaking": 5864,
      "pecially": 5865,
      "ĠÐ¾Ð¿ÑĤÐ¸": 5866,
      "iol": 5867,
      "ÑıÐ¼": 5868,
      "ĠÑģÐ¾ÐºÑĢÐ°": 5869,
      "arter": 5870,
      "Ġbelow": 5871,
      "ĠÑĢÑĥÐºÐ¾Ð²Ð¾Ð´": 5872,
      "ÑĩÐ½Ð¸Ðº": 5873,
      "ĠÑģÑĤÐ°ÑĤÑĮÐ¸": 5874,
      "ĠÐ½ÐµÑģÐºÐ¾Ð»ÑĮÐºÐ¸Ñħ": 5875,
      "Ġwatch": 5876,
      "Ð´Ð½Ñĥ": 5877,
      "**": 5878,
      "Ġprobably": 5879,
      "ief": 5880,
      "ĠÑĥÐ½Ð¸ÐºÐ°": 5881,
      "Ð¸Ð³Ñĥ": 5882,
      "ÑģÐ°Ñħ": 5883,
      "ÑģÐ¸Ð¾": 5884,
      "Ġcreate": 5885,
      "Ġfavor": 5886,
      "Ð±Ð»Ð¾": 5887,
      "ĠÐ±Ð¾Ð³Ð°": 5888,
      "µÐ½ÑĤÑĭ": 5889,
      "erm": 5890,
      "³Ð¸Ð½Ð°": 5891,
      "ĠÑĤÐµÑĢÐ°": 5892,
      "ÑĤÐºÐ¾Ð¹": 5893,
      "ÑģÑĤÐ²ÐµÐ½Ð½Ð¾ÑģÑĤÑĮ": 5894,
      "ried": 5895,
      "ĠÑĢÐ°Ð·Ð¼ÐµÑīÐ": 5896,
      "Ġcomput": 5897,
      "ĠÑĢÑĭÐ½ÐºÐµ": 5898,
      "ĠÑīÐµ": 5899,
      "29": 5900,
      "gest": 5901,
      "ĠÐºÐ¾Ð½ÐºÑĥÑĢ": 5902,
      "ilt": 5903,
      "ĠÑģÑĤÐ°Ð½ÐµÑĤ": 5904,
      "ternet": 5905,
      "ially": 5906,
      "):": 5907,
      "ĠÑģÐ²Ð¾ÐµÐ¼": 5908,
      "Ġage": 5909,
      "Ð½Ð¸ÑĨ": 5910,
      "itch": 5911,
      "ÐĿÐŀ": 5912,
      "ĠÐ¸Ð·Ð±Ðµ": 5913,
      "Ġissue": 5914,
      "ĠÐ½ÐµÐ±Ð¾Ð»ÑĮÑĪÐ¾": 5915,
      "Ġissues": 5916,
      "Ġbeaut": 5917,
      "ĠÑĢÐµÐ¼Ð¾Ð": 5918,
      "ÑĩÐµÐ½Ñĭ": 5919,
      "Ð²Ð»ÐµÐ½Ð¸Ñİ": 5920,
      "AC": 5921,
      "Ð²Ð¸Ð»Ð°": 5922,
      "Ġener": 5923,
      "Ð²ÐµÐ¹": 5924,
      "hod": 5925,
      "°Ð³Ð": 5926,
      "ĠÐ³Ð¾ÑģÑĥÐ´Ð°ÑĢÑģÑĤÐ²Ð°": 5927,
      "ĠÐ°ÑĢÑħÐ¸": 5928,
      "ĠAmerica": 5929,
      "Ġitem": 5930,
      "ÐºÑĥÑĢÐ°": 5931,
      "ison": 5932,
      "iber": 5933,
      "Ð¿ÑĢÑĥ": 5934,
      "Ð²Ð³Ñĥ": 5935,
      "ĠÐºÐ¾Ð¼Ð¼Ñĥ": 5936,
      "Ġannoun": 5937,
      "Ġstep": 5938,
      "ĠÐ¼Ð¾Ð": 5939,
      "ĠÐ¾ÑĢÐ³Ð°Ð½Ð¸Ð·Ð¼Ð°": 5940,
      "ÐŁÑĢÐµ": 5941,
      "Ð½Ð¾Ð¼Ñĥ": 5942,
      "ĠÑģÑĤÑĢÐ°Ð½Ðµ": 5943,
      "ĠÑĤÐµÐ±Ðµ": 5944,
      "Ġcompan": 5945,
      "Ġplease": 5946,
      "ĠÑįÐºÑģÐ¿Ð»Ñĥ": 5947,
      "Ġtaken": 5948,
      "ĠThese": 5949,
      "Ġstudy": 5950,
      "Ġidea": 5951,
      "Ġmag": 5952,
      "ÑĤÑĥÑĢÑĥ": 5953,
      "ibility": 5954,
      "ĠÑĥÑĩÐ¸ÑĤÑĭ": 5955,
      "Ð»ÑĮÐµ": 5956,
      "ĠÐ²ÑĭÑģÐ¾ÐºÐ¾": 5957,
      "µÑĤÐµÑĢÐ±Ñĥ": 5958,
      "ĠÐ½ÐµÐ²Ð¾Ð·Ð¼Ð¾Ð¶Ð½Ð¾": 5959,
      "ĠÐ¿Ð¾Ð»ÐµÐ·Ð": 5960,
      "ĠÑģÐ¸Ð»Ñĥ": 5961,
      "Ġwanted": 5962,
      "Ġland": 5963,
      "ÑĨÐ¸Ð¾Ð½Ð½ÑĭÐµ": 5964,
      "ĠÑĢÐ°Ð½ÐµÐµ": 5965,
      "Ð¼ÐµÐ½Ð¸ÑĤÑĮ": 5966,
      "ÑģÑĤÑıÑħ": 5967,
      "ĠÐ¿Ð¾Ð¼Ð¾Ð¶ÐµÑĤ": 5968,
      "Ġgirl": 5969,
      "ÑģÑĤÐ²ÐµÐ½Ð½Ð°Ñı": 5970,
      "ĠÑģÑĬ": 5971,
      "¸Ð½Ð¸": 5972,
      "pril": 5973,
      "½ÑıÑı": 5974,
      "ĠÐ¡ÑĤÐ¾": 5975,
      "µÐ¼Ð¾Ð¹": 5976,
      "On": 5977,
      "Ð´Ð½Ð¾Ð³Ð¾": 5978,
      "ĠÐ²ÐºÑĥ": 5979,
      "ĠÐ¦Ðµ": 5980,
      "ĠÐ²Ð¾Ð´Ð¸": 5981,
      "ror": 5982,
      "ĠÐ¿ÑĢÐ¾ÑĨÐµÑģÑģÐ°": 5983,
      "Ð¼Ð¿": 5984,
      "dd": 5985,
      "Ġcoming": 5986,
      "ÑģÐ¸Ð»": 5987,
      "ĠSouth": 5988,
      "ÑĢÐ³Ð¸Ð¸": 5989,
      "ĠÐºÐ¾Ð¼ÑĦÐ¾": 5990,
      "ĠÑĥÑģÑĤÐ°Ð½Ð°Ð²Ð»Ð¸": 5991,
      "ĠÐ¼Ð¾Ð¹": 5992,
      "Ð¿Ð¾Ð´": 5993,
      "ĠÑħÑĥÐ´Ð¾": 5994,
      "Ġpict": 5995,
      "ĠÐ½Ð°Ð»Ð¸ÑĩÐ¸Ðµ": 5996,
      "Ġ000": 5997,
      "ĠÐ¿Ð°Ð»ÑĮ": 5998,
      "Ġ90": 5999,
      "ÐŀÑ": 6000,
      "ÐŀÑĤ": 6001,
      "Ð²ÐµÑĢÐµ": 6002,
      "Ġchallen": 6003,
      "Ð·Ð¾Ð¼": 6004,
      "ĠÑģÐ½Ð¸Ð¶Ð": 6005,
      "ÑĢÐ¾Ð½Ð¸": 6006,
      "Ð¿Ð°Ð½Ð¸Ñı": 6007,
      "ĠÑĥÐºÑĢÐ°Ð¸Ð½": 6008,
      "ĠÑĨÐ²ÐµÑĤÐ°": 6009,
      "imate": 6010,
      "Ġfail": 6011,
      "ĠHis": 6012,
      "ĠÐºÐ¾Ð½ÑĤÑĢÐ°": 6013,
      "½ÑİÑİ": 6014,
      "ĠÑĢÐ¾Ð»ÑĮ": 6015,
      "ÑĤÐµÐ»ÑĮÐ½ÑĥÑİ": 6016,
      "ĠÑģÐºÐ¾Ð»ÑĮÐºÐ¾": 6017,
      "ĠÐ´Ð°Ð½Ð½Ð¾Ð¹": 6018,
      "ĠÐ¾Ð±ÑģÐ»ÑĥÐ¶Ð¸": 6019,
      "ĠÐ·Ð°ÐºÐ°Ð·": 6020,
      "ĠÐ²Ð¾ÑģÑģÑĤÐ°Ð½Ð¾": 6021,
      "ogn": 6022,
      "time": 6023,
      "Ġelse": 6024,
      "Ġ70": 6025,
      "ĠÑĢÑıÐ´Ð¾Ð¼": 6026,
      "ĠÐ¿ÑĢÐ¾ÑĤÑı": 6027,
      "ĠÐ³ÑĢÐµ": 6028,
      "Ð¶Ð½Ð°": 6029,
      "Ġmedia": 6030,
      "ÑĥÐ°": 6031,
      "eng": 6032,
      "Ð°Ð³Ð": 6033,
      "Ġcred": 6034,
      "ĠÑģÑĤÐ¾Ñı": 6035,
      "ĠÐ¼Ð¾Ñī": 6036,
      "Ð½Ð°ÑĩÐ°Ð»Ð°": 6037,
      "Ġ2016": 6038,
      "Ġtyp": 6039,
      "ĠÑĢÐ°ÑģÑģÐ¼Ð°ÑĤÑĢÐ¸": 6040,
      "ĠÐ´Ð¾ÐºÑĥÐ¼ÐµÐ½ÑĤÑĭ": 6041,
      "Ġcop": 6042,
      "OS": 6043,
      "ague": 6044,
      "Ġdoc": 6045,
      "ĠÑħÐ°ÑĢÐ°ÐºÑĤÐµÑĢ": 6046,
      "ĠÑģÑĤÑĢÐ°Ð": 6047,
      "ÐŁÐ¾Ð´": 6048,
      "ĠÐµÑģÑĤÐµ": 6049,
      "ĠÐºÐ¾Ð³Ð¾": 6050,
      "ederal": 6051,
      "ĠÑģÑĤÑĢÐ°Ð½": 6052,
      "ĠDav": 6053,
      "Ġbuy": 6054,
      "Ð¦Ð": 6055,
      "ĠÐ¼Ð¾Ð³Ñĥ": 6056,
      "Ġfall": 6057,
      "ashing": 6058,
      "ĠÐºÐ¾Ð¼Ð¿Ð¾": 6059,
      "ĠÐ¸Ð½ÑĦÐµÐº": 6060,
      "Ð¿Ð¾ÑģÑĢÐµÐ´": 6061,
      "ÑħÑĢÐ°Ð½Ñı": 6062,
      "ĠCor": 6063,
      "Ð½Ð°Ð·Ð½Ð°": 6064,
      "ĠÐ¿ÑĢÐ¾Ð´ÑĥÐºÑĨÐ¸Ð¸": 6065,
      "Ð´Ð°Ð½Ð¸Ðµ": 6066,
      "ĊĊ": 6067,
      "irm": 6068,
      "ĠEurope": 6069,
      "ĠÐ½Ð°ÑĪÐµÐ³Ð¾": 6070,
      "Ġhope": 6071,
      "ĠÐ°Ð»ÑĮ": 6072,
      "ĠÐ¿ÐµÑĢÐ²ÑĥÑİ": 6073,
      "ĠÐ¿Ð»Ð°ÑĤÐµ": 6074,
      "Re": 6075,
      "Ġquite": 6076,
      "'d": 6077,
      "ÑĪÐ°ÐµÑĤÑģÑı": 6078,
      "US": 6079,
      "Ð·ÑĮÑı": 6080,
      "Ð½Ð¸Ð±ÑĥÐ´ÑĮ": 6081,
      "Ġentire": 6082,
      "ĠÐĲÐ½Ð´": 6083,
      "Ð²Ð¾Ð´ÑıÑ": 6084,
      "Ð²Ð¾Ð´ÑıÑĤ": 6085,
      "ĠÐ¿ÑĢÐ¸Ð²Ð»ÐµÐºÐ°": 6086,
      "ĠÐĴÐ°Ñģ": 6087,
      "Ġrequire": 6088,
      "isc": 6089,
      "gress": 6090,
      "ply": 6091,
      "ÑĤÐ½ÑĭÐ¼Ð¸": 6092,
      "Ð¼Ð¾ÑĢ": 6093,
      "ask": 6094,
      "Ġheld": 6095,
      "ÑĩÐ½Ð¾ÑģÑĤÑĮ": 6096,
      "ĠÐ¿ÑĢÐµÐ¶Ð´Ðµ": 6097,
      "resh": 6098,
      "Ð»ÐµÐºÐ¾": 6099,
      "uation": 6100,
      "ÑĤÐ¸ÑĩÐµÑģÐºÐ¾Ð³Ð¾": 6101,
      "atural": 6102,
      "Ġindustry": 6103,
      "When": 6104,
      "ĠÐ¿Ð¾Ð²ÑĢÐµ": 6105,
      "ĠÐ·Ð°ÐºÐ»ÑİÑĩÐ°": 6106,
      "ĠÐºÑĥÐ´Ð°": 6107,
      "Ġhit": 6108,
      "ĠGl": 6109,
      "ĠÐ¿Ð¾Ð´Ð´ÐµÑĢÐ¶Ð¸": 6110,
      "ĠÐĹÐ´ÐµÑģÑĮ": 6111,
      "ĠÐ½ÐµÐ´Ð²Ð¸Ð¶Ð": 6112,
      "Ġrather": 6113,
      "ĠÑĥÐ·Ð½Ð°ÑĤÑĮ": 6114,
      "Ġperiod": 6115,
      "ĠÐ¸ÑģÐ¿Ð¾Ð»Ð½Ð¸": 6116,
      "ÑĢÐ½Ð¸": 6117,
      "ĠÐ½ÐµÐ¸Ð·": 6118,
      "ĠÐ´Ð°Ð½Ð½ÑĭÐ¹": 6119,
      "Ġquestions": 6120,
      "Ġaud": 6121,
      "ĠÑĥÐ¿Ð°": 6122,
      "Ġcult": 6123,
      "ĠÑįÐ¼Ð¾": 6124,
      "aur": 6125,
      "off": 6126,
      "Ð¸Ð³Ð°": 6127,
      "¾ÑĩÐ¸": 6128,
      "ÐĵÐ»Ð°": 6129,
      "ĠÐ¼ÐµÑģÑıÑĨÐ°": 6130,
      "Ġmot": 6131,
      "°Ð¿ÑĢÐµ": 6132,
      "ĠÐ¸Ð·Ð±Ð°": 6133,
      "Ġstore": 6134,
      "Ġadded": 6135,
      "¾ÑģÐ¾": 6136,
      "ÑģÑĤÐ½ÑĭÐ¹": 6137,
      "ĠPer": 6138,
      "Ð°Ð¿ÑĢÐµ": 6139,
      "ĠOct": 6140,
      "ĠPresident": 6141,
      "ĠÐ¸Ð½Ð¾Ð³Ð´Ð°": 6142,
      "Ð½Ð¾Ð²ÑĢÐµÐ¼ÐµÐ½Ð½Ð¾": 6143,
      "ĠÑģÐ¼Ð°": 6144,
      "ĠÑĥÑĢÐ¾Ð²Ð½Ðµ": 6145,
      "RE": 6146,
      "ÑĩÐ¸ÐºÐ°": 6147,
      "ĠPol": 6148,
      "ĠÑħÐ²Ð°": 6149,
      "Al": 6150,
      "ĠÑĨÐµÐ½Ñĭ": 6151,
      "ÐļÐ¾Ð¼": 6152,
      "Ġparent": 6153,
      "Ġfoot": 6154,
      "Ġnothing": 6155,
      "ĠÐºÐ¾Ð½ÑĦ": 6156,
      "ĠÐ´ÐµÑĤÐ¸": 6157,
      "ÑģÑĤÑĭÐ": 6158,
      "ĠQu": 6159,
      "ÑģÐºÐ¾Ð»ÑĮÐºÐ¾": 6160,
      "reg": 6161,
      "ĠÑģÐ¾ÑĩÐµÑĤÐ°": 6162,
      "Ġphys": 6163,
      "Ġexc": 6164,
      "ĠÐºÐ¾Ð½ÑĤÐ°Ðº": 6165,
      "eter": 6166,
      "ĠÐ¾ÐºÑĢÑĥÐ¶Ð°": 6167,
      "ĠÑģÐ»ÐµÐ´ÑĥÑİÑīÐ¸Ðµ": 6168,
      "ĠÐ²Ð¾Ð·ÑĢÐ°ÑģÑĤÐ°": 6169,
      "Ġeveryone": 6170,
      "ĠÐ°Ð³Ð": 6171,
      "ÑĨÐ¸Ð¾Ð½Ð½Ð¾Ð³Ð¾": 6172,
      "µÐ½ÑĤÐ¸": 6173,
      "----": 6174,
      "ĠÐ¼ÑıÐ³": 6175,
      "ĠTH": 6176,
      "Ð²ÐµÐ»Ð¸": 6177,
      "ÑĦÐµÑĢÐµÐ½": 6178,
      "°Ð²Ð¸Ð°": 6179,
      "Ð¼Ð½ÑĭÑħ": 6180,
      "ĠÐ±Ð¸Ð·Ð½ÐµÑģÐ°": 6181,
      "ancial": 6182,
      "ĠÐ³Ð¾ÑĢÐ¾Ð´Ðµ": 6183,
      "ÐłÐŀ": 6184,
      "ĠÐºÐ¾ÑĢÑĢÐµ": 6185,
      "ĠPe": 6186,
      "ÑģÐ¸Ñİ": 6187,
      "lex": 6188,
      "ĠÑĢÐ°Ð·Ð½Ð¾Ð¾Ð±ÑĢÐ°": 6189,
      "ĠÐ¿Ð¾ÑĢÑıÐ´ÐºÐµ": 6190,
      "ĠÑĪÑĤÐ°": 6191,
      "ĠÐ³Ð¾ÑĢÑı": 6192,
      "ĠÐ¾ÑĤÐ¿Ñĥ": 6193,
      "Ð·Ð°Ñħ": 6194,
      "ÐºÑĢÑĥÐ³": 6195,
      "ctor": 6196,
      "Ġhost": 6197,
      "Ġfinal": 6198,
      "ĠÐ±Ð¾Ð½Ñĥ": 6199,
      "ĠÐ¿ÑĢÐµÑģÑģ": 6200,
      "ĠEm": 6201,
      "ĠÐ²ÑĭÑģÑĤÑĥÐ¿Ð°": 6202,
      "ÑĤÐµÐ»Ñİ": 6203,
      "Ð°Ð²Ð¸Ð°": 6204,
      "ÑĢÐ¸Ñ": 6205,
      "ĠÐĳÑĭ": 6206,
      "ÑĩÐµÐ½Ð¸Ñİ": 6207,
      "ÑĢÐ¸ÑĤ": 6208,
      "Ġenvironment": 6209,
      "Ð±Ð½ÑĭÐ¹": 6210,
      "ÑĢÐ¾Ð²Ð°ÑĤÑĮÑģÑı": 6211,
      "ili": 6212,
      "ĠÐ¾ÑĤÐ¿ÑĢÐ°": 6213,
      "ĠÐ°Ð¿ÑĢÐµ": 6214,
      "Ð¼Ð½ÑĭÐ¹": 6215,
      "ĠÐ´Ð°ÐµÑĤ": 6216,
      "Ġcompl": 6217,
      "Ġ2006": 6218,
      "ĠÐºÐ°ÑĢÑĤÐ¾": 6219,
      "Ð²Ð½Ð°Ñı": 6220,
      "ÑĩÐµÑģÑĤÐ²Ð¾": 6221,
      "ĠÐ¿Ð¾Ð»Ðµ": 6222,
      "Ð½Ð¸ÑĢÐ¾Ð²Ð°": 6223,
      "Ġresults": 6224,
      "Ġaccording": 6225,
      "ĠÐ½ÐµÐ¾Ð±ÑħÐ¾Ð´Ð¸Ð¼Ð¾ÑģÑĤÐ¸": 6226,
      "ĠÐ°Ð±ÑģÐ¾": 6227,
      "Ð¼Ð¸Ð¼Ð¾": 6228,
      "ĠÐ²ÑĭÐ±Ð¸ÑĢÐ°": 6229,
      "ĠÐ·Ð°ÑĢÐµ": 6230,
      "ÑĩÐ¸Ñħ": 6231,
      "fact": 6232,
      "de": 6233,
      "ĠÐ·Ð°ÑıÐ²Ð¸Ð»": 6234,
      "Ġstaff": 6235,
      "ops": 6236,
      "ĠÑĦÐµÐ´ÐµÑĢÐ°": 6237,
      "Ġer": 6238,
      "ÑģÐ¾Ð²Ð°": 6239,
      "Ġsearch": 6240,
      "Ġ500": 6241,
      "ĠÐ¸Ð½ÑĤÐµÑĢÐµÑģ": 6242,
      "ÑģÐµÐ½": 6243,
      "Ġbehind": 6244,
      "ĠWar": 6245,
      "ministr": 6246,
      "ÑģÑĤÐ¾Ð¹ÑĩÐ¸": 6247,
      "ĠAfter": 6248,
      "Ġtrack": 6249,
      "oose": 6250,
      "Ġhon": 6251,
      "inks": 6252,
      "ĠHowever": 6253,
      "Ġseems": 6254,
      "istrict": 6255,
      "Ġpurch": 6256,
      "Ġparticip": 6257,
      "Ġrelations": 6258,
      "¸Ð´": 6259,
      "ĠAf": 6260,
      "Ð·Ð½ÑĭÐµ": 6261,
      "ĠÐ»Ð¸ÑĨÐ": 6262,
      "ĠÐ½Ð¸Ð¼Ð¸": 6263,
      "Ġprice": 6264,
      "Ġboard": 6265,
      "ĠÐ°Ð½Ð³": 6266,
      "Ð´Ð¸Ð°": 6267,
      "ĠPa": 6268,
      "ĠÐ¸Ð³ÑĢÑĥ": 6269,
      "Ġcourt": 6270,
      "Ġx": 6271,
      "ĠÐ´ÑĢÐ°": 6272,
      "reet": 6273,
      "Ġpo": 6274,
      "na": 6275,
      "Ġfurther": 6276,
      "ĠÐ°Ð²Ð¸Ð°": 6277,
      "ĠÑĤÐ°ÐºÐ°Ñı": 6278,
      "itten": 6279,
      "ĠÐ¾ÑĦÐ¸ÑĨÐ¸Ð°Ð»ÑĮÐ½Ð¾": 6280,
      "uary": 6281,
      "ĠÐ²ÑģÑĤÐ°": 6282,
      "rodu": 6283,
      "ĠÐ³Ð»ÑĥÐ±Ð¾": 6284,
      "Ġ35": 6285,
      "Ġamount": 6286,
      "ĠÐŃÑĤÐ¾Ñ": 6287,
      "ĠÐŃÑĤÐ¾ÑĤ": 6288,
      "rug": 6289,
      "Ð¿Ð¸Ð¸": 6290,
      "·Ðµ": 6291,
      "Ñĸ": 6292,
      "ĠIm": 6293,
      "ĠÐ¿ÑĢÐ¸Ð´ÐµÑĤÑģÑı": 6294,
      "ĠÑĢÐ°Ð·Ð»Ð¸ÑĩÐ½ÑĭÐµ": 6295,
      "°ÑģÑģÐ¾": 6296,
      "ĠÑĥÐ¶": 6297,
      "µÑĪÐ¸": 6298,
      "Ġball": 6299,
      "ÑīÐ°ÐµÑĤÑģÑı": 6300,
      "head": 6301,
      "Ġdi": 6302,
      "itting": 6303,
      "ĠÑģÑĤÑĢÐ°ÑĤÐµ": 6304,
      "ĠÐ½ÐµÑĢ": 6305,
      "ĠÐ¿ÑĢÐ¾Ð²ÐµÐ´Ð": 6306,
      "ĠPart": 6307,
      "ĠÐ»ÑĮ": 6308,
      "Ġblack": 6309,
      "Ġrepl": 6310,
      "Ð¿ÑĢÐ¸Ð": 6311,
      "ĠÑģÑĥÑīÐµÑģÑĤÐ²ÑĥÐµÑĤ": 6312,
      "Ġste": 6313,
      "ĠÐ±Ð¸Ð¾": 6314,
      "Ġposition": 6315,
      "Ġspend": 6316,
      "Ð¾ÑģÐ¾": 6317,
      "ĠÑģÑĤÐ°Ð½Ð´Ð°ÑĢ": 6318,
      "ÑģÑĤÑĭÐµ": 6319,
      "ĠÐ´Ð¸Ð·Ð°Ð¹": 6320,
      "val": 6321,
      "ĠÐ¿ÑĢÐ¾ÑĤÐµ": 6322,
      "°Ð²Ð³Ñĥ": 6323,
      "Ġrepresent": 6324,
      "Ð°Ð²Ð³Ñĥ": 6325,
      "ÑĢÐ±": 6326,
      "Ġformer": 6327,
      "aged": 6328,
      "ĠÑģÐ¾ÑģÑĤÐ¾ÑıÐ½Ð¸Ð¸": 6329,
      "asing": 6330,
      "ĠÐ¿ÐµÑĢÐ²Ð¾Ð¹": 6331,
      "Ġdeath": 6332,
      "vert": 6333,
      "Ġhowever": 6334,
      "ĠÐ´ÑĢÑĥÐ³Ð¸Ð¼Ð¸": 6335,
      "ÑĢÐµÐ·Ð°": 6336,
      "ĠJune": 6337,
      "Ð¾ÑĩÐ¸": 6338,
      "aturday": 6339,
      "obal": 6340,
      "aced": 6341,
      "ĠÐ¾ÑĢÑĥ": 6342,
      "¾Ð´Ð½Ñĥ": 6343,
      "Ð¾Ð´Ð½Ñĥ": 6344,
      "ĠÑĢÐµÐ³ÑĥÐ»Ð¸": 6345,
      "Ġperformance": 6346,
      "Ġmeas": 6347,
      "Ð³Ð°Ð¼Ð¸": 6348,
      "Ð²Ð»ÐµÐ½": 6349,
      "ĠÐ¿ÑĢÐ¾ÑĨÐµÑģÑģÐµ": 6350,
      "ĠÐ¾ÑĨÐµÐ½Ð¸": 6351,
      "ĠÐ·Ð¾Ð»Ð¾": 6352,
      "ĠMarch": 6353,
      "Ġmember": 6354,
      "Ġenergy": 6355,
      "ÑĨÐ°Ð¼Ð¸": 6356,
      "ÐĳÐµ": 6357,
      "ĠÐ¿ÑĢÐ¸Ð½Ð°Ð´": 6358,
      "Ð¸Ð±Ð¸": 6359,
      "Ġbuilding": 6360,
      "Ð¼Ð¸Ð½": 6361,
      "ĠÐ·Ð°ÑģÑĤÐ°": 6362,
      "Ġaction": 6363,
      "Ð¼Ð¸ÑĤÐµ": 6364,
      "Ġoffice": 6365,
      "Ð³Ð»Ð¾": 6366,
      "ÑĤÑĭÐ¼": 6367,
      "Ġisn": 6368,
      "ĠÐ¼ÐµÑĢÐµ": 6369,
      "ĠÐ¾Ð´Ð½Ð¾Ð¼": 6370,
      "ĠÑĢÑıÐ´": 6371,
      "ĠÐ¿ÑĢÐµÐ´ÑģÑĤÐ°Ð²Ð»ÑıÐµÑĤ": 6372,
      "ÑĤÐ¸ÑĩÐµÑģÐºÐ¸Ð¹": 6373,
      "ĠÐ¾ÑģÐ¾": 6374,
      "ĠÑģÐ²Ð°": 6375,
      "ĠÐ¾Ð´Ð½Ñĥ": 6376,
      "ites": 6377,
      "ĠEl": 6378,
      "ĠÐ¿Ð¾Ð´ÑĢÐ¾Ð±": 6379,
      "ples": 6380,
      "ĠHouse": 6381,
      "Ġconsider": 6382,
      "ĠÐ¿ÑĥÑĤÐ¸": 6383,
      "Ð¶Ð½Ñĭ": 6384,
      "Ġweb": 6385,
      "Ġhom": 6386,
      "ÐºÐ½Ñĥ": 6387,
      "ĠÑĪÑĥ": 6388,
      "Ġsoon": 6389,
      "ĠÑģÐ¼Ð¾Ð¶ÐµÑĤÐµ": 6390,
      "ĠPark": 6391,
      "¾ÑģÑĤÐµÐ¹": 6392,
      "ÑģÐµÐ¹": 6393,
      "ĠÑģÐ°Ð¼Ð¾Ð¹": 6394,
      "To": 6395,
      "Ð»ÑıÑĨÐ¸Ð¸": 6396,
      "ĠÑĦÑĥÑĤÐ±Ð¾": 6397,
      "Ġcontent": 6398,
      "ĠÐĺÐ¼ÐµÐ½Ð½Ð¾": 6399,
      "¾ÑģÐ¾Ð±Ð¾": 6400,
      "empt": 6401,
      "ĠÑģÐ¿Ð¾ÑģÐ¾Ð±Ð¾": 6402,
      "ÑĩÐµÐ½Ð¾": 6403,
      "ĠÐ¾ÑĤÐ½Ð¾ÑĪÐµÐ½Ð¸Ð¸": 6404,
      "Ð¶Ð¸ÑĤÑĮ": 6405,
      "ĠÐ¿ÑĥÑĤÐµ": 6406,
      "ĠÐ½ÐµÐ´Ð°": 6407,
      "Ð²ÑĪÐµÐ¹": 6408,
      "ĠÐŁÐµÑĤ": 6409,
      "ĠÐ¿Ð»Ð¾ÑħÐ¾": 6410,
      "Ġcompanies": 6411,
      "ĠJust": 6412,
      "ĠÑįÐºÑģÐ¿Ð»ÑĥÐ°ÑĤÐ°": 6413,
      "ĠWest": 6414,
      "Ð¢Ð¾": 6415,
      "Ð¶Ð½Ð°Ñı": 6416,
      "ĠÐ°Ð²Ð³Ñĥ": 6417,
      "Ġtechnology": 6418,
      "Ġcontinue": 6419,
      "½Ð¾ÑģÑĤÐ¸": 6420,
      "ĠÐ½ÐµÐ¿Ð¾ÑģÑĢÐµÐ´": 6421,
      "Ð·ÑĢÐµ": 6422,
      "Ġspace": 6423,
      "ĠÐ¿ÑĢÐµÐ´Ð½Ð°Ð·Ð½Ð°": 6424,
      "ĠÑĨÐµÐ»Ð¸": 6425,
      "Ð¾ÑģÐ¾Ð±Ð¾": 6426,
      "ĠÑĩÐ°ÑģÑĤÐ½Ð¾ÑģÑĤÐ¸": 6427,
      "ĠÐ¼Ð½Ð¾Ð¶ÐµÑģÑĤÐ²Ð¾": 6428,
      "Ð¢Ðŀ": 6429,
      "Ð»ÑĭÐ¼": 6430,
      "Ġdue": 6431,
      "ĠÐ½Ð°ÑģÐµÐ»ÐµÐ½Ð¸Ñı": 6432,
      "90": 6433,
      "ĠPM": 6434,
      "ĠÐ´Ð°Ð½Ð½ÑĭÐ¼": 6435,
      "Ġtit": 6436,
      "ĠÐ¿Ð¾ÑĤÑĢÐµÐ±Ð¸": 6437,
      "Ġplayers": 6438,
      "ĠÐ°Ð»ÐºÐ¾Ð³Ð¾": 6439,
      "Ġ=": 6440,
      "ĠÑĢÐ¾Ð´": 6441,
      "ĠÐ¸ÑģÑĤÐ¾ÑĢÐ¸": 6442,
      "ĠÐ²ÑĢÐµÐ¼ÐµÐ½Ð": 6443,
      "Ġsex": 6444,
      "ĠAct": 6445,
      "ees": 6446,
      "ĠÑģÐ¾ÐµÐ´Ð¸": 6447,
      "ĠÐ¼Ð¾Ð·": 6448,
      "ÑĩÐµÑģÐºÐ¸Ð¼Ð¸": 6449,
      "ĠÐ²ÑģÐ¿Ð¾": 6450,
      "mit": 6451,
      "Ð¸Ð½Ð°": 6452,
      "Ġtext": 6453,
      "ĠÑģÑĥÑģÑĤÐ°": 6454,
      "Ġfire": 6455,
      "ĠÑģÐ¾Ð¿ÑĢÐ¾Ð²Ð¾": 6456,
      "ĠÑģÐ¾Ð¾Ð±ÑīÐ°ÐµÑĤ": 6457,
      "ÑĨÐ¸ÑıÐ¼Ð¸": 6458,
      "Ġnational": 6459,
      "ux": 6460,
      "ÑĩÐ¸Ñ": 6461,
      "ĠÐ·Ð½Ð°ÑĩÐ¸ÑĤÐµÐ»ÑĮÐ½Ð¾": 6462,
      "ÑĩÐ¸ÑĤ": 6463,
      "name": 6464,
      "Ġlikely": 6465,
      "ĠÐ²ÑĭÐ¸Ð³": 6466,
      "ĠÐºÐ¸Ð½Ð¾": 6467,
      "ĠÑĦÐµÐ²": 6468,
      "Ġweeks": 6469,
      "How": 6470,
      "oph": 6471,
      "ĠÑģÑĥÐ´Ð°": 6472,
      "ĠÐ¿Ð¾ÑģÑĤÐµ": 6473,
      "ĠÐ½Ð°Ð¿Ð¸": 6474,
      "Ġattack": 6475,
      "ĠÑģÐ¾Ð¾Ð±ÑīÐ": 6476,
      "amer": 6477,
      "ĠÐ¿Ð¾ÑĤÐµÐ½": 6478,
      "ĠFeb": 6479,
      "ĠÑģÐ¾Ð±Ð°": 6480,
      "ĠÐ±Ð¾Ð»ÐµÐ·Ð½Ð¸": 6481,
      "Ð¼Ð¸Ð¸": 6482,
      "Ġcommon": 6483,
      "ze": 6484,
      "ĠAug": 6485,
      "Ġespecially": 6486,
      "ume": 6487,
      "ĠMich": 6488,
      "ental": 6489,
      "Ġtravel": 6490,
      "Ġupon": 6491,
      "ĠÐ´Ð¸Ð°Ð³Ð½Ð¾ÑģÑĤÐ¸": 6492,
      "ÑĩÑĥÐ²": 6493,
      "ĠÑĢÑĭÐ½ÐºÐ°": 6494,
      "ĠÐ½Ð¸ÐºÑĤÐ¾": 6495,
      "ĠÐ¾ÑĤÐ´ÑĭÑħÐ°": 6496,
      "ĠÐ¾ÑģÐ¾Ð±Ð¾": 6497,
      "ĠÐ¸Ð³ÑĢÐ°ÑĤÑĮ": 6498,
      "ĠÑģÐ¸ÑģÑĤÐµÐ¼": 6499,
      "Ġrecent": 6500,
      "ĠÑįÐºÐ¾": 6501,
      "¶Ð°Ð¹": 6502,
      "ĠMark": 6503,
      "ocr": 6504,
      "ÑĢÑĥÐ¿": 6505,
      "ĠÑĥÐ·": 6506,
      "Ġ31": 6507,
      "ĠÑģÑĤÐ¾Ð»": 6508,
      "ĠÑįÐºÑģÐ¿ÐµÑĢ": 6509,
      "°Ð»ÑĮÐ½Ð¾Ð¹": 6510,
      "oom": 6511,
      "ĠÐ¿ÑĢÐµÐ²Ñĭ": 6512,
      "olution": 6513,
      "ÑģÑĤÑĥÑİ": 6514,
      "Ð´Ð¾ÑĤ": 6515,
      "ĠÐ·Ð½Ð°ÑĤÑĮ": 6516,
      "Ġfocus": 6517,
      "ĠAb": 6518,
      "ĠÑĨÐµÐ»Ð¾Ð¼": 6519,
      "ĠNews": 6520,
      "ĠÐ·Ð´Ð¾ÑĢÐ¾": 6521,
      "Ġproblems": 6522,
      "ÑĦÐ¾ÑĢÐ¼Ð¸": 6523,
      "ĠÐ´ÐµÑĦÐ": 6524,
      "ÑģÑĤÐ½Ð¾Ð³Ð¾": 6525,
      "ĠKe": 6526,
      "angu": 6527,
      "Ġansw": 6528,
      "ada": 6529,
      "Ġ2014": 6530,
      "ĠÐ³Ð¾ÑģÑĤÐ¸": 6531,
      "Ð²Ð»ÐµÐ½Ð¸Ð¹": 6532,
      "ĠÑģÐ¸ÑģÑĤÐµÐ¼Ñĥ": 6533,
      "ÑĤÐ¸Ð²Ð½ÑĭÐ¹": 6534,
      "ĠÑħÐ¾Ð´Ðµ": 6535,
      "lling": 6536,
      "ÑĤÑĮÑı": 6537,
      "ĠÐ´Ð¾Ð³Ð¾Ð²Ð¾ÑĢÐ°": 6538,
      "Ġtou": 6539,
      "ĠÑĨÐµÐ»ÑĮÑİ": 6540,
      "ÑĩÐ½Ð¾Ð¼": 6541,
      "ĠÐ¾ÑĩÐ¸": 6542,
      "ĠÐ¿Ð¾ÑĤÐµÑĢÑı": 6543,
      "Ġrights": 6544,
      "ĠÐ³Ð¾ÑĢ": 6545,
      "Ġlink": 6546,
      "33": 6547,
      "ĠÑģÑĥÐ´ÑĮ": 6548,
      "amed": 6549,
      "°Ð»ÑĮÐ½Ð¾Ð³Ð¾": 6550,
      "Ġrecomm": 6551,
      "75": 6552,
      "ĠÐ²Ð¾Ð»": 6553,
      "ĠDes": 6554,
      "ĠÐ¿Ð¾Ð·Ð½Ð°": 6555,
      "ĠÐĽÐ¾": 6556,
      "Ġtool": 6557,
      "Ġnecess": 6558,
      "ÐłÐĲ": 6559,
      "ĠÐ½Ð°ÑĩÐ°Ð»Ðµ": 6560,
      "ĠÐ¸Ð½Ð¾ÑģÑĤÑĢÐ°": 6561,
      "ĠÐ¿ÑĢÐ¾Ñģ": 6562,
      "ĠInc": 6563,
      "ining": 6564,
      "ÐŀÐŀ": 6565,
      "ĠÐ¿ÑĢÐµÐ²ÑĢÐ°": 6566,
      "ĠÐ±Ð°Ð½ÐºÐ¾Ð²": 6567,
      "ĠÑıÐ½Ð²Ð°ÑĢÑı": 6568,
      "ĠÐºÐ°ÑĢÑĤÐ¸": 6569,
      "ĠStud": 6570,
      "Ġneeded": 6571,
      "Ġcharacter": 6572,
      "ĠÑĦÐµÐ²ÑĢÐ°": 6573,
      "05": 6574,
      "Ġrecommend": 6575,
      "ival": 6576,
      "ively": 6577,
      "Ġgeneral": 6578,
      "ĠÑģÐ»Ð¾Ð¶Ð": 6579,
      "leased": 6580,
      "ĠÐ±ÑĭÑģÑĤ": 6581,
      "ĠÐ¸ÑģÐºÐ°": 6582,
      "ĠÐ½Ð°ÑģÑĤÐ¾ÑıÑīÐµÐµ": 6583,
      "Ġ2015": 6584,
      "ĠÐĴÐµÐ»Ð¸": 6585,
      "ĠÐ¿ÑĢÐ¸ÐµÐ¼": 6586,
      "cell": 6587,
      "Ð»ÐµÐ½Ð¸ÐµÐ¼": 6588,
      "Ð°ÑģÑģÐ¾": 6589,
      "sc": 6590,
      "ÑģÐºÐ¸Ð¼Ð¸": 6591,
      "ÑĤÐ¾ÑĢÐ¾Ð¼": 6592,
      "Ġrunning": 6593,
      "ournal": 6594,
      "iter": 6595,
      "Ð´ÑıÑ": 6596,
      "Ð´ÑıÑĤ": 6597,
      "Ð¸Ð³Ð½Ð°": 6598,
      "ĠÐ¸Ð½ÑĦÐ¾ÑĢÐ¼Ð°ÑĨÐ¸Ñı": 6599,
      "ÑĢÐ¸Ð±": 6600,
      "ÑģÑģÐ¾Ð²": 6601,
      "ĠÐ²Ð°ÑĪ": 6602,
      "Ġcal": 6603,
      "ounc": 6604,
      "str": 6605,
      "ĠÐºÐ¾Ð½ÑģÑĥÐ»ÑĮÑĤÐ°": 6606,
      "Ð½Ð¸ÐºÑĥ": 6607,
      "ĠÐ½Ð°Ð³ÑĢÑĥÐ·": 6608,
      "ĠÑĤÑĢÐµÐ±ÑĥÐµÑĤÑģÑı": 6609,
      "Ġground": 6610,
      "reme": 6611,
      "ÐļÐŀ": 6612,
      "Ġwords": 6613,
      "ĠÑĦÐµ": 6614,
      "ĠWindows": 6615,
      "ĠÐ¼ÐµÑģÑıÑĨ": 6616,
      "Ð»ÑĥÐ¹": 6617,
      "ÐĸÐ": 6618,
      "unities": 6619,
      "Ġsubject": 6620,
      "µÑĪÐµ": 6621,
      "Ð½Ð½Ð°": 6622,
      "Ð»ÐºÐµ": 6623,
      "ĠÑģÐµÑĢÑĮ": 6624,
      "ĠÑģÑĤÐµÐ¿ÐµÐ½Ð¸": 6625,
      "ÑĤÐ¾Ð½": 6626,
      "Ð±ÐµÑĢ": 6627,
      "ÐĺÑģÑĤÐ¾": 6628,
      "Ġfeatures": 6629,
      "¾ÑĢÐµ": 6630,
      "Ð¿Ñı": 6631,
      "Ð½Ð¾Ð³Ð¸Ðµ": 6632,
      "aching": 6633,
      "Ð¼ÐµÐ½ÑıÑĤÑĮ": 6634,
      "ĠÐ³Ð¾Ð²Ð¾ÑĢÐ¸ÑĤÑĮ": 6635,
      "ĠÑģÐºÑĢÑĭ": 6636,
      "Ġrad": 6637,
      "Ġpresident": 6638,
      "ÑįÑĢÐ¾": 6639,
      "Ð¶Ð¸Ðµ": 6640,
      "Ġparty": 6641,
      "ÑĩÐºÐµ": 6642,
      "ruction": 6643,
      "AM": 6644,
      "ĠÐºÐ°ÑĩÐµÑģÑĤÐ²Ð¾": 6645,
      "ÑĩÐ½ÑĭÐ¼Ð¸": 6646,
      "ĤÐ½Ð¾Ðµ": 6647,
      "ÑĤÐ½Ð¾Ðµ": 6648,
      "Ġforward": 6649,
      "Ð½Ð´Ðµ": 6650,
      "ÑĢÐ¾Ð·": 6651,
      "ĠÐ±ÐµÑģÐ¿Ð¾": 6652,
      "ĠÐĴÐµÐ´ÑĮ": 6653,
      "ĠÑģÐ¾Ð»": 6654,
      "ĠÑĩÐµÑĢ": 6655,
      "ÑģÐ¸Ñ": 6656,
      "ÑģÐ¸ÑĤ": 6657,
      "ĠAM": 6658,
      "Ġmatter": 6659,
      "ires": 6660,
      "Ġexist": 6661,
      "ĠÑĤÐ¾Ð¹": 6662,
      "Ġreceived": 6663,
      "ĠGoogle": 6664,
      "ÑĩÐ¸ÐºÐ¾Ð²": 6665,
      "Ġarticle": 6666,
      "ĠÐ¿ÐµÑĢÐ²Ð¾Ð³Ð¾": 6667,
      "acebook": 6668,
      "ÑĥÑģ": 6669,
      "ĠÐ°ÑģÑģÐ¾": 6670,
      "ÐŁÐ°": 6671,
      "ĠÐ·ÑĢÐµÐ½Ð¸Ñı": 6672,
      "ĠÑģÐ»ÑĥÐ¶Ð±Ñĭ": 6673,
      "Ð¿ÐµÐ½": 6674,
      "Ð´Ð½Ð¸Ðº": 6675,
      "ĠÐ¼Ð°Ñı": 6676,
      "ĤÑĢÑĥ": 6677,
      "ÑĤÑĢÑĥ": 6678,
      "Ġvalue": 6679,
      "ĠÐ²Ð¸Ð´Ð¾Ð²": 6680,
      "Ð½ÑĮÑĪÐµ": 6681,
      "ĠÐºÑĢÐ¾Ð¼Ðµ": 6682,
      "Ð²Ð¾ÑĢÐ¾": 6683,
      "ÑģÑĤÑĢ": 6684,
      "Ð²Ð¸Ð¶": 6685,
      "ĠÑģÐµÐ¼ÑĮÐ¸": 6686,
      "Ġwww": 6687,
      "iddle": 6688,
      "vent": 6689,
      "pper": 6690,
      "ĠÐ²Ð¾ÐºÑĢÑĥÐ³": 6691,
      "ĠÐ´Ð°Ð½Ð½Ð¾Ð³Ð¾": 6692,
      "ĠÐ¿ÑĢÐ¾ÐµÐºÑ": 6693,
      "ĠÐ¿ÑĢÐ¾ÐµÐºÑĤ": 6694,
      "Ġaccept": 6695,
      "ĠÐ²Ð·ÑĢÐ¾Ñģ": 6696,
      "ĠÑĥÑĤÐ¾": 6697,
      "Ġprovided": 6698,
      "ÑĩÐ¸Ðµ": 6699,
      "earch": 6700,
      "ĠÐ¿ÑĢÐ¸Ð¼ÐµÐ½ÐµÐ½Ð¸Ñı": 6701,
      "ĠÐ¼Ð¾Ð»Ð¾Ð´Ñĭ": 6702,
      "ĠÐ»Ð¸ÑĨÐ¾": 6703,
      "ĠÐ½Ð°ÑģÑĤÐ¾": 6704,
      "Ġupd": 6705,
      "ÑĢÑıÐ´Ð¾Ðº": 6706,
      "itte": 6707,
      "ĠÐ¿ÑĢÐµÐ´ÑĥÑģÐ¼Ð¾ÑĤÑĢÐµ": 6708,
      "OT": 6709,
      "ĠSept": 6710,
      "Ġsaw": 6711,
      "Ġfig": 6712,
      "Ġlate": 6713,
      "ĠÑģÐ½Ð°": 6714,
      "ĠÑģÐ½Ðµ": 6715,
      "ĠÑģÐµÐ»ÑĮ": 6716,
      "Ġroad": 6717,
      "ĠÐ¿Ð¾ÐµÐ·": 6718,
      "Ġevents": 6719,
      "oved": 6720,
      "ĠÐ½Ð¾Ð¼Ðµ": 6721,
      "Ġtrue": 6722,
      "ĠÑģÑĤÐ¾Ð»Ð¸": 6723,
      "ĠÑĥÑģÑĤÐ°Ð½Ð¾Ð²Ð»Ð": 6724,
      "ĠApril": 6725,
      "Ġareas": 6726,
      "eth": 6727,
      "ĠÐ¾ÑĪÐ¸Ð±": 6728,
      "ĠÐ¼Ð¾ÑĢ": 6729,
      "ĠÐ¼Ð¾Ð¼ÐµÐ½ÑĤÐ°": 6730,
      "ID": 6731,
      "ĠÐ¼Ð°ÑģÑģÐ°": 6732,
      "Ð½Ð¸Ð½": 6733,
      "Ġnice": 6734,
      "ĠÐ²Ð¾Ð¹Ð½Ñĭ": 6735,
      "ĠÐ¸ÑģÐ¿Ð¾Ð»ÑĮÐ·ÑĥÐµÑĤÑģÑı": 6736,
      "ĠPre": 6737,
      "ĠÐ½ÐµÑĦ": 6738,
      "Ġdifficult": 6739,
      "Ġsignific": 6740,
      "ĠÐ²ÐµÐ´Ñĥ": 6741,
      "ÑħÐ¾Ð¼": 6742,
      "bor": 6743,
      "unday": 6744,
      "ĠÐ²Ð·ÑıÑĤÑĮ": 6745,
      "ĠÑģÑĤÐ¾ÑĢÐ¾Ð½Ñĥ": 6746,
      "ĠÐ²ÐµÑĢÐ½Ñĥ": 6747,
      "Ġsong": 6748,
      "ÑģÐ½Ð¾Ð³Ð¾": 6749,
      "ÑĨÐ¸Ð¾Ð½Ð½ÑĭÐ¹": 6750,
      "Ġanyone": 6751,
      "ĠÑģÐ²Ð¾Ð¹ÑģÑĤÐ²Ð°": 6752,
      "ĠÐ¿ÑĢÐµÐ´Ð¿Ð¾Ð»Ð°Ð³Ð°": 6753,
      "ÑĢÐµÐ¼": 6754,
      "ÑģÐ¿ÑĥÐ±Ð»Ð¸ÐºÐ¸": 6755,
      "Ġrespect": 6756,
      "ĠFriday": 6757,
      "ĠÑģÐ´Ðµ": 6758,
      "Ð½Ð¸ÐºÐ°Ð¼": 6759,
      "Ġabs": 6760,
      "aign": 6761,
      "Ð¿Ð¸ÑģÐ¸": 6762,
      "ledge": 6763,
      "ĠÐ·Ð°Ð¹": 6764,
      "Ð²Ð¸Ð½": 6765,
      "Ġmaint": 6766,
      "Ð·Ð½ÑĭÑħ": 6767,
      "¾Ð³Ð¾": 6768,
      "ĠÐ¼Ð°ÑĤÐµÑĢÐ¸Ð°Ð»Ñĭ": 6769,
      "ĠÐ·Ð°ÑĤÑĢÐ°": 6770,
      "ÑĢÐ¸Ð»": 6771,
      "Ð²ÐµÑīÐ": 6772,
      "ĠÐ¡ÐµÑĢÐ³Ð": 6773,
      "ĠÐ²ÐµÑģÑĮÐ¼Ð°": 6774,
      "Ġinit": 6775,
      "ĠÐ¾ÑģÐ½Ð¾Ð²Ð°": 6776,
      "!!!": 6777,
      "ĠÐºÐ¾Ð½ÐºÑĥ": 6778,
      "Ð²Ð»ÐµÑĤ": 6779,
      "ĠÐľÐ¾Ð¶Ð½Ð¾": 6780,
      "ĠÐ´Ð¾Ð±ÑĢÐ¾": 6781,
      "itter": 6782,
      "ĠÐ½ÐµÑģ": 6783,
      "ĠÐ¿ÑĢÐ¾Ð´": 6784,
      "ÑĩÐ¸ÑĤÐµÐ»ÑĮÐ½Ð¾": 6785,
      "ĠÐ¿Ð¾Ð²Ðµ": 6786,
      "ĠÑĨÐµÐ½Ð°": 6787,
      "ÑĤÐ°ÐµÑĤ": 6788,
      "Ġprotect": 6789,
      "ÐºÐµÑĢ": 6790,
      "ĠÐ¿ÑĢÐ¸Ð¼ÐµÑĢÐ½Ð¾": 6791,
      "ana": 6792,
      "ĠÐ¾ÑĢÐ³Ð°Ð½Ð¸Ð·Ð¾": 6793,
      "Ð¶ÐµÐ»Ð°": 6794,
      "ĠÐ´ÐµÐºÐ°Ð±ÑĢÑı": 6795,
      "ÑĩÐ¸Ð»": 6796,
      "¾Ð¿Ð¾": 6797,
      "ĠÑģÐ¿Ð¾ÑĢÑĤÐ¸": 6798,
      "ĠÐ¾Ð±ÑĢÐ°Ð·Ð¾Ð²Ð°": 6799,
      "Ġcouple": 6800,
      "ĠÑģÐµÐºÑĢÐµ": 6801,
      "ĠÐºÑĢÐµÐ¿": 6802,
      "ĠÐ²Ð¾Ð´Ð¾": 6803,
      "Ð±ÑĢÐ¾": 6804,
      "ĠÑģÐ¸Ð»Ñĭ": 6805,
      "ĠÐºÐ¾Ð»Ðµ": 6806,
      "obile": 6807,
      "Ġimprove": 6808,
      "eds": 6809,
      "ĠPar": 6810,
      "ĠÐ¿Ð¾Ð´ÑĩÐµ": 6811,
      "Ġcell": 6812,
      "Ġeducation": 6813,
      "ĠÐ¿Ð¾Ð²ÐµÑĢÑħÐ½Ð¾ÑģÑĤÐ¸": 6814,
      "Ð¸Ð»": 6815,
      "ĠÐ½ÐµÐ·Ð°Ð²Ð¸ÑģÐ¸": 6816,
      "ĠÑĢÐ°Ð·ÑĢÐ°Ð±Ð¾ÑĤÐ°": 6817,
      "ĠÐ³ÐµÐ½ÐµÑĢÐ°": 6818,
      "ĠÐ¿Ð¾ÑģÐ": 6819,
      "ĠÐ½Ð¾Ð³": 6820,
      "ĠÐ²ÐµÑĢÐ¾ÑıÑĤ": 6821,
      "Ð¿ÑĢÐ°Ð²Ð¸": 6822,
      "Ġprovides": 6823,
      "ĠÑĤÑĥÑĢÐ¸": 6824,
      "ĠÐ±Ð»Ð¸Ð¶Ð°Ð¹": 6825,
      "ÑģÑĤÑĢÐ°Ð¸": 6826,
      "ĠÐ¿Ð¾ÑģÐ²Ñı": 6827,
      "Ð¿Ð°ÑģÐ¸Ð±Ð¾": 6828,
      "Ġsimilar": 6829,
      "ÐľÐĺ": 6830,
      "ÑģÑĤÐ¾Ðº": 6831,
      "ÑīÑĥÑİ": 6832,
      "ĠÑĤÐ¾ÑĩÐºÐ¸": 6833,
      "ĠÐ¿ÑĢÐ¸Ð³Ð¾ÑĤÐ¾Ð²": 6834,
      "Ġtraining": 6835,
      "ĠAust": 6836,
      "ĠÑģÐ¼Ð¾ÑĤÑĢÐµÑĤÑĮ": 6837,
      "ĠÐ´Ð¾ÑģÑĤÑĥÐ¿Ð": 6838,
      "Ð»Ð³Ð¾": 6839,
      "ĠÑģÐ°ÑħÐ°": 6840,
      "Ġversion": 6841,
      "cle": 6842,
      "ĠSpe": 6843,
      "ĠÐ¿Ð¸ÑĤÐ°Ð½Ð¸Ñı": 6844,
      "Ġstri": 6845,
      "ules": 6846,
      "¾ÑģÑĤ": 6847,
      "ĠÐ´Ð¾ÑģÑĤÐ¸Ð¶Ð": 6848,
      "ÐºÑĥÐ»ÑĮ": 6849,
      "ĠÐºÐ°ÑģÐ°ÐµÑĤÑģÑı": 6850,
      "ĠÑĨÐ¸ÑĦ": 6851,
      "ĠÐ·Ð´Ð¾ÑĢÐ¾Ð²ÑĮÑı": 6852,
      "ĠÐ¸Ð·Ð²ÐµÑģÑĤÐ½Ð¾": 6853,
      "ĠÑĢÐ°Ð½ÑĮÑĪÐµ": 6854,
      "Ġap": 6855,
      "ĠCour": 6856,
      "ĠNow": 6857,
      "Ġpolitical": 6858,
      "Ð³Ð°Ð¼": 6859,
      "ÑĢÑĭÑħ": 6860,
      "ĠÐºÑĥÐ»ÑĮÑĤÑĥÑĢÑĭ": 6861,
      "ÐºÐ¾Ð²Ð¾Ð¹": 6862,
      "ĠÐ»Ð¸ÑĤÐµÑĢÐ°": 6863,
      "Ð§ÑĤÐ¾Ð±Ñĭ": 6864,
      "ĠÑģÐµÐºÑģ": 6865,
      "ĠÐļÐ¸Ðµ": 6866,
      "Ġlog": 6867,
      "Ð±ÑĢÐ¸": 6868,
      "Ð´ÐµÑı": 6869,
      "Ġshows": 6870,
      "ĠTV": 6871,
      "Ġselect": 6872,
      "ĠÑģÐ¾Ð·Ð´Ð°Ð½Ð¸Ñı": 6873,
      "aily": 6874,
      "Ð±ÐµÐ½Ð¾Ðº": 6875,
      "ĠÐŁÐµÑĢÐµ": 6876,
      "come": 6877,
      "Ġoutside": 6878,
      "ĠÐ¿ÑıÑĤÑĮ": 6879,
      "ĠÑįÐºÐ": 6880,
      "ĠÑĤÑĢÐµÐ±ÑĥÐµÑĤ": 6881,
      "ĠÐ¾ÐºÑĤÑıÐ±ÑĢÑı": 6882,
      "))": 6883,
      "ĠÐ¾Ð±Ð¾ÑĢÐ¾": 6884,
      "ÑİÑīÐ¸ÑħÑģÑı": 6885,
      "100": 6886,
      "Ð´Ð¾Ñģ": 6887,
      "Ġoffers": 6888,
      "ĠÑģÑĢÐµÐ´ÑģÑĤÐ²Ð¾": 6889,
      "ĠÐ²ÑĭÐ¿Ñĥ": 6890,
      "ĠÐ¾ÑĢÐ¸Ð³Ð¸Ð½Ð°": 6891,
      "ĠDepartment": 6892,
      "ĠDay": 6893,
      "ĠOff": 6894,
      "Ð¿Ð¾Ð»Ð¸": 6895,
      "ĠÐ·Ð»Ð¾": 6896,
      "Ġsend": 6897,
      "ĠÐ·Ð½Ð°ÑĩÐµÐ½Ð¸Ðµ": 6898,
      "ek": 6899,
      "lt": 6900,
      "ĠÐ»ÑİÐ´Ñı": 6901,
      "Ġassist": 6902,
      "ĠÐ´ÐµÐ¹ÑģÑĤÐ²Ð¸Ð¹": 6903,
      "ĠÐ¶ÐµÐ»Ðµ": 6904,
      "Ġincludes": 6905,
      "Ð´Ð°Ð¼Ð¸": 6906,
      "Ġsimply": 6907,
      "Ġgrad": 6908,
      "ĠÑĥÐ´Ð°Ð»Ð¾ÑģÑĮ": 6909,
      "istic": 6910,
      "ĠÐºÐ°ÐºÐ¸Ñħ": 6911,
      "ĠÐºÐ°Ð¼": 6912,
      "ashington": 6913,
      "ÑĤÐ¸Ð½Ð°": 6914,
      "Ġrequired": 6915,
      "ÑģÐ½ÑĭÐ¼": 6916,
      "Ã©": 6917,
      "elebr": 6918,
      "ÐļÐĲ": 6919,
      "Ġtown": 6920,
      "ĠObama": 6921,
      "ÑģÐ¾Ð±Ñĭ": 6922,
      "Ġrange": 6923,
      "Ġwind": 6924,
      "Ġdescrib": 6925,
      "ĠÑĢÐ°Ð¹Ð¾Ð½Ðµ": 6926,
      "OM": 6927,
      "ĠÐ´Ð¾Ð¼Ðµ": 6928,
      "ude": 6929,
      "ĠÑģÐ´Ð°": 6930,
      "ÑĪÐµÑĤ": 6931,
      "ÐļÑĥ": 6932,
      "hib": 6933,
      "Ġ2005": 6934,
      "Ġdam": 6935,
      "onday": 6936,
      "ĠÐ°Ð±ÑģÐ¾Ð»ÑİÑĤ": 6937,
      "Ð¼Ð¾ÑģÑĤÑĮ": 6938,
      "ĠÑģÐ¸Ð¼Ð²Ð¾": 6939,
      "ÐĵÐ¾": 6940,
      "ĠÐ¿Ð¾Ð¼ÐµÑīÐµÐ½Ð¸Ñı": 6941,
      "Ð»ÐµÐ½Ð¸Ð¹": 6942,
      "Ġ2018": 6943,
      "ĠÑĤÐ°ÐºÐ¾Ð¼": 6944,
      "ĠÑĤÑĢÐµÐ½Ð¸": 6945,
      "ĠÐ¾Ð³ÑĢÐ¾": 6946,
      "ĠÑģÑĤÐ°ÑĢÐ°": 6947,
      "Ġrecently": 6948,
      "ĠÐ¾Ð±ÑģÑĤÐ¾Ñı": 6949,
      "uge": 6950,
      "ĠÐ´ÐµÐ»Ð°ÐµÑĤ": 6951,
      "ny": 6952,
      "Ġcannot": 6953,
      "medi": 6954,
      "ĠÐ¿ÑĢÐµÐ´Ð²Ð°ÑĢÐ¸": 6955,
      "Ð³Ð¸Ð±": 6956,
      "Ġrole": 6957,
      "ĠÑģÐ¿Ð¾ÐºÐ¾Ð¹": 6958,
      "ĠÐ¾Ð¿ÑĭÑ": 6959,
      "ĠÐ¾Ð¿ÑĭÑĤ": 6960,
      "ĠÐ¿ÐµÑĢÐ¸Ð¾": 6961,
      "ĠHer": 6962,
      "Ġswe": 6963,
      "ÑģÑĳ": 6964,
      "Ġcard": 6965,
      "ĠÐ¿ÑĢÐ¸ÑĩÐ¸Ð½Ð°": 6966,
      "Ġplaying": 6967,
      "ĠÐ±ÑİÐ´Ð¶Ðµ": 6968,
      "ĠÐ´ÐµÑıÑĤÐµÐ»ÑĮÐ½Ð¾ÑģÑĤÑĮ": 6969,
      "bl": 6970,
      "ese": 6971,
      "ĠÑĢÐ°Ð·Ð½ÑĭÐµ": 6972,
      "Ġprep": 6973,
      "Ð½ÐºÑ": 6974,
      "Ð½ÐºÑĤ": 6975,
      "ĠÐ±ÐµÑĢÐµÐ¼ÐµÐ½Ð½Ð¾ÑģÑĤÐ¸": 6976,
      "ĠÑģÑĦÐµÑĢÐµ": 6977,
      "oid": 6978,
      "ĠÑģÐ»ÐµÐ´": 6979,
      "ĠHigh": 6980,
      "Ġviol": 6981,
      "aker": 6982,
      "ĠÑĨÐµÐ½": 6983,
      "Ġ196": 6984,
      "ĠÐ½Ð¾Ð²Ð¾Ð¹": 6985,
      "ĠÐ¿ÑĢÐ¸Ð½Ð¸Ð¼Ð°ÑĤÑĮ": 6986,
      "ises": 6987,
      "95": 6988,
      "ÑģÐ¿Ð¾ÑģÐ¾Ð±": 6989,
      "½ÑģÐ¸": 6990,
      "Ġlost": 6991,
      "ÐŁÐµÑĢ": 6992,
      "attle": 6993,
      "ĠÐ²ÐµÑĢÑħ": 6994,
      "Ð¡Ðµ": 6995,
      "·Ñĥ": 6996,
      "Ġconsum": 6997,
      "Ġself": 6998,
      "ĠÐ·Ð°ÑīÐ¸ÑĤÑĭ": 6999,
      "ĠÐ¿ÑĢÐ¸Ð²Ð»Ðµ": 7000,
      "ishing": 7001,
      "Ġtype": 7002,
      "ĠÐ¿ÑĢÐ¸Ð²Ðµ": 7003,
      "ĠÐ½Ð°Ð»Ð¸ÑĩÐ¸Ð¸": 7004,
      "ĠÐ²Ð¾ÑģÐ¿Ð¸ÑĤÐ°": 7005,
      "ĠÐ¿Ð¾Ð¼Ð¾Ð³Ð°ÐµÑĤ": 7006,
      "ĠÐ²ÐµÐºÐ°": 7007,
      "Ġcirc": 7008,
      "ĠÑĥÑģÑĤÑĢÐ¾Ð¹ÑģÑĤÐ²Ð°": 7009,
      "ÑĦÑĥ": 7010,
      "Ġcook": 7011,
      "ÐºÐ¸Ð½": 7012,
      "clus": 7013,
      "Ġvict": 7014,
      "ĠÐ°Ð²ÑĤÐ¾Ð¼Ð¾Ð±Ð¸Ð»Ñı": 7015,
      "Ġstop": 7016,
      "ÑģÑģÑĥ": 7017,
      "itional": 7018,
      "Sh": 7019,
      "ky": 7020,
      "ĠÐ´ÐµÐ¿ÑĥÑĤÐ°": 7021,
      "ĠÐ¼ÐµÑħÐ°Ð½Ð¸Ð·": 7022,
      "Ġkids": 7023,
      "ĠÐ±Ð¾Ðµ": 7024,
      "ĠSoc": 7025,
      "ĠÑģÐ¾ÑģÑĤÐ¾ÑıÐ½Ð¸Ñı": 7026,
      "Ġmanagement": 7027,
      "ĠÑģÐµÐ½ÑĤÑıÐ±ÑĢÑı": 7028,
      "ĠÑģÐ¿Ñĥ": 7029,
      "ĠII": 7030,
      "ĠÐ±Ð»Ñİ": 7031,
      "ÑĤÐµÐ½Ð¸Ñı": 7032,
      "ĠÐ½Ð°ÑĢÐ¾Ð´": 7033,
      "Ġtakes": 7034,
      "ÐĴÐ¸": 7035,
      "ĠÐºÐ¾Ð¼Ð¼ÐµÐ½ÑĤÐ°": 7036,
      "ĠÑģÐ½Ð¸Ð¼Ð°": 7037,
      "Ġestab": 7038,
      "ĠÐ¸ÑģÐ¿Ð¾Ð»ÑĮÐ·ÑĥÑİÑĤ": 7039,
      "ĠÐ¾ÑĤÐ¼ÐµÑĤÐ¸ÑĤÑĮ": 7040,
      "ĠÑĢÐµÐ·ÑĥÐ»ÑĮÑĤÐ°Ñ": 7041,
      "ĠÑĢÐµÐ·ÑĥÐ»ÑĮÑĤÐ°ÑĤ": 7042,
      "Ġmethod": 7043,
      "ĠÐ¼Ð°ÑĤÐµÑĢÐ¸Ð°Ð»": 7044,
      "Ð½Ð¾Ð¿": 7045,
      "Ð»Ð°ÐºÑĤÐ¸": 7046,
      "ĠÑĤÐ¾Ð²Ð°ÑĢÐ¾Ð²": 7047,
      "iful": 7048,
      "Ð²Ð°Ð»Ð°ÑģÑĮ": 7049,
      "ĠMore": 7050,
      "Ġjud": 7051,
      "ĠÐ¿Ð¾ÑģÐ»ÐµÐ´Ð½Ð¸Ðµ": 7052,
      "04": 7053,
      "ĠÐ¿Ð¾Ð¼": 7054,
      "ÐĽÐµ": 7055,
      "ĠÐ´ÐµÐºÐ¾": 7056,
      "Ð²Ð¾Ð»Ñİ": 7057,
      "ĠÐ¿ÑĢÐ¾Ð´Ð¾Ð»Ð¶Ð¸": 7058,
      "Ġoil": 7059,
      "Ġcollect": 7060,
      "Ð¢Ð°Ðº": 7061,
      "ÑĤÐµÐ»ÑĮÐ½ÑĭÐ¼Ð¸": 7062,
      "Ġprograms": 7063,
      "ĠAssoci": 7064,
      "ĠÐ²Ð»Ð°Ð´ÐµÐ»ÑĮ": 7065,
      "Ð¼Ð¸Ñ": 7066,
      "ĠÑĢÐ¾Ð»Ð¸": 7067,
      "Ð¼Ð¸ÑĤ": 7068,
      "ĠÐ²Ð¸Ð´Ð¸": 7069,
      "Ð¼Ð°Ñħ": 7070,
      "example": 7071,
      "ification": 7072,
      "ĠÐ¿ÑĢÐ¾Ð³Ð½Ð¾": 7073,
      "ÑĨÐµÐ¹": 7074,
      "ĠÐ¿ÑĢÐ¾Ð¼ÑĭÑĪÐ»Ð": 7075,
      "ouncil": 7076,
      "Ġattend": 7077,
      "ables": 7078,
      "ĠÑģÐ¾Ð·Ð´Ð°ÑĤÑĮ": 7079,
      "Ð³ÑĢÐ°ÑĦÐ¸Ð¸": 7080,
      "Ġcomment": 7081,
      "Ġcontrib": 7082,
      "ĠÐ¿ÑĢÐ¸Ð³Ð»Ð°": 7083,
      "Ġmorning": 7084,
      "Ġpain": 7085,
      "Ġarg": 7086,
      "Ġwhite": 7087,
      "ĠÐ¼ÐµÑĩ": 7088,
      "ÑĭÑģÐºÐ°": 7089,
      "Ġhy": 7090,
      "Ð½ÑĭÐ¼": 7091,
      "ĠÐ¿Ð»Ð°Ð": 7092,
      "ÑĢÐ½ÑĥÑİ": 7093,
      "ĠÐ¿Ð»Ð°Ð½": 7094,
      "ĠÐ½Ð°ÑĢÑĥÑĪÐµÐ½Ð¸Ñı": 7095,
      "Ġanim": 7096,
      "erc": 7097,
      "ĠÑĩÐµÐ¼Ð¿": 7098,
      "ĠÑĩÐ»Ðµ": 7099,
      "ma": 7100,
      "ĠSaturday": 7101,
      "ĠÑħÐ¾ÑĤÐ¸ÑĤÐµ": 7102,
      "ĠÑĢÐ°ÑģÑģÐ¼Ð¾ÑĤÑĢÐµ": 7103,
      "Ġdig": 7104,
      "ÑĩÐ¸ÐºÐ¸": 7105,
      "ĠSer": 7106,
      "face": 7107,
      "ĠÐ¶Ð¸Ð´ÐºÐ¾": 7108,
      "ÐļÐ¾Ð³Ð´Ð°": 7109,
      "ĠÑĥÐ´Ð¾Ð²Ð¾Ð»ÑĮ": 7110,
      "ĠÐ½ÐµÐ´ÐµÐ»Ð¸": 7111,
      "ÑĤÐ¸Ð»Ð°": 7112,
      "Ġ2000": 7113,
      "ĠÐ·Ð°Ð³Ð¾": 7114,
      "Ġsimple": 7115,
      "ĠÐ¶ÐµÐ»": 7116,
      "ĠJuly": 7117,
      "overed": 7118,
      "Ġclean": 7119,
      "Ð»Ð¾Ð¶": 7120,
      "Ġliving": 7121,
      "Ġ45": 7122,
      "oes": 7123,
      "Ð»ÐµÑĤÑĭ": 7124,
      "Ġagre": 7125,
      "chie": 7126,
      "ĠÐ¼Ð¸Ð½Ð¸Ð¼Ð°": 7127,
      "Ð¶Ð°ÐµÑĤ": 7128,
      "Ġoriginal": 7129,
      "Ġinfl": 7130,
      "Ð½Ð½Ð¾Ð¼Ñĥ": 7131,
      "ĠÐºÐ°Ð·Ð°": 7132,
      "ÐºÐ¾ÑĤÐ¾ÑĢÑĭ": 7133,
      "ĠÐ¼Ð¸Ð": 7134,
      "½ÑģÐºÐ¾Ð¹": 7135,
      "Ð¸Ð¼Ð¸": 7136,
      "ĠÑĢÐµÐºÐ¾Ð¼ÐµÐ½Ð´ÑĥÐµÑĤÑģÑı": 7137,
      "ĠÐ½ÐµÐ³Ð°": 7138,
      "ÑĤÐµÐ½Ð¸Ðµ": 7139,
      "Ð±Ð¾ÑĢÐ°": 7140,
      "ĠAg": 7141,
      "ĠÑıÐ²Ð»Ñı": 7142,
      "ĠÐ²Ð¾Ð·Ð±Ñĥ": 7143,
      "Ġtotal": 7144,
      "Ġrecogn": 7145,
      "ĠÐ¼ÐµÐ±Ðµ": 7146,
      "ĠÑģÑĤÑĥÐ´ÐµÐ½": 7147,
      "Ġcontract": 7148,
      "Ð»Ð°Ñħ": 7149,
      "Ð¿ÐµÑĢÐ²ÑĭÐµ": 7150,
      "ĠÑģÐºÐ°ÑĩÐ°ÑĤÑĮ": 7151,
      "Ġnetwork": 7152,
      "Ġvarious": 7153,
      "adem": 7154,
      "Ġvot": 7155,
      "Ð¾ÑģÑĤ": 7156,
      "ests": 7157,
      "ĠÑģÐ¾ÑģÑĥ": 7158,
      "Ġways": 7159,
      "ĠÑģÐ¾ÑģÑĤÐ¾Ð¸ÑĤ": 7160,
      "apt": 7161,
      "ĠSan": 7162,
      "like": 7163,
      "ety": 7164,
      "ĠFacebook": 7165,
      "ĠSen": 7166,
      "36": 7167,
      "Ð²Ð°Ð»Ð¾": 7168,
      "ĠÐ²Ð°ÑĪÐµÐ³Ð¾": 7169,
      "ĠÐ¼Ð¾Ð³Ð»Ð¸": 7170,
      "Ġphone": 7171,
      "Ġinstall": 7172,
      "Ġchanges": 7173,
      "Ġloss": 7174,
      "Ð¸Ð¼Ð¾ÑģÑĤÐ¸": 7175,
      "ĠInt": 7176,
      "Ġwasn": 7177,
      "ĠÐ±Ð°Ð½ÐºÐ°": 7178,
      "ÑģÐ¾Ð": 7179,
      "ĠÐºÐ¾Ð»Ð¸ÑĩÐµÑģÑĤÐ²Ð°": 7180,
      "ĠÐ³Ð»Ð°Ð²Ð½Ð¾Ðµ": 7181,
      "ĠÐ¾Ð´Ð½Ð¾Ð²ÑĢÐµÐ¼ÐµÐ½Ð½Ð¾": 7182,
      "ĠÐ¿Ð¾Ð´Ð½Ñı": 7183,
      "ecut": 7184,
      "Ð¼ÐµÑĨ": 7185,
      "ovember": 7186,
      "ĠÐ¾Ð±Ð¾ÑĢÑĥÐ´Ð¾Ð²Ð°Ð½Ð¸Ñı": 7187,
      "ĠAng": 7188,
      "ĠÐºÐ°Ð¶Ð´Ð¾Ð¹": 7189,
      "ĠÐ·Ð°Ð¿ÑĢÐ¾": 7190,
      "Ġplayed": 7191,
      "ĠÐ½Ð°ÑĤÑĥÑĢÐ°": 7192,
      "Ġsense": 7193,
      "ĠÐĲÐ½Ð°": 7194,
      "Cl": 7195,
      "Ð³Ð»Ð°ÑģÐ½Ð¾": 7196,
      "ÑģÑĤÐ°Ð½Ð¾Ð²": 7197,
      "Ġleaders": 7198,
      "ĠÐ½Ð°ÑģÑĤÑĢÐ¾Ð": 7199,
      "ham": 7200,
      "Ġdom": 7201,
      "ÑĩÐµÐ½Ð¸Ð¹": 7202,
      "ĠÐ¶Ð°Ð»Ð¾": 7203,
      "ĠÐ²Ð¾Ð´Ð¾Ð¹": 7204,
      "Ġgoal": 7205,
      "ĠÑģÐ¸Ð³Ð½Ð°": 7206,
      "ĠVal": 7207,
      "ĠÑģÐ¾Ð¼": 7208,
      "oke": 7209,
      "Ð¼ÑĥÐ¼": 7210,
      "ĠÐ¸Ð¼ÐµÐ½Ð¸": 7211,
      "Ð¾Ð¿Ð¾": 7212,
      "Ġ>": 7213,
      "ĠMon": 7214,
      "ĠÑģÑĩÐ¸ÑĤÐ°ÐµÑĤÑģÑı": 7215,
      "Ġassoci": 7216,
      "ĠÑĤÐµÐºÑĥ": 7217,
      "Ð²ÐµÑĢÑĮ": 7218,
      "ĠÑģÐ»ÑĥÑĩÐ°ÐµÐ²": 7219,
      "Ġill": 7220,
      "ÑģÑıÑĤÑģÑı": 7221,
      "ÑĩÐµÐ½Ð½ÑĭÐµ": 7222,
      "Ġinj": 7223,
      "ached": 7224,
      "ĠÐ¢Ð¾Ð»ÑĮÐºÐ¾": 7225,
      "Ġbase": 7226,
      "44": 7227,
      "Ġcover": 7228,
      "Ð²Ð°ÑĤÐµÐ»ÑĮ": 7229,
      "ett": 7230,
      "ĠÑĥÐ½Ð¸Ð²ÐµÑĢÑģÐ¸ÑĤÐµ": 7231,
      "Ġobject": 7232,
      "Ġrisk": 7233,
      "anced": 7234,
      "ĠÐŁÐ¸": 7235,
      "ĠÑģÑĥÑīÐµÑģÑĤÐ²Ð¾": 7236,
      "Ġbegan": 7237,
      "ĠÐ·Ð½Ð°ÐºÐ¾": 7238,
      "].": 7239,
      "Ġshall": 7240,
      "ĠÑĦÐ°Ð¹": 7241,
      "ĠÐ´Ð°Ð»ÑĮÑĪÐµ": 7242,
      "My": 7243,
      "ĠÐ´ÐµÐ¹ÑģÑĤÐ²Ñĥ": 7244,
      "ĠÐºÐ²Ð°ÑĢÑĤÐ¸ÑĢÑĭ": 7245,
      "aging": 7246,
      "ĠÑĢÑĥÐºÐ°Ð¼Ð¸": 7247,
      "Ġinn": 7248,
      "Ð»ÑĮÐ½Ð¸Ðº": 7249,
      "Ð¿Ð¾ÑĤÐµ": 7250,
      "idge": 7251,
      "oud": 7252,
      "ĠÐ½Ð°ÑĢÑĥÑĪÐ": 7253,
      "ĠÑģÐ¾ÑģÐµ": 7254,
      "ĠÐľÐ¾ÑģÐºÐ²Ñĭ": 7255,
      "OU": 7256,
      "ÑģÑĤÐ²ÐµÐ½Ð½ÑĥÑİ": 7257,
      "Ġlat": 7258,
      "Ġ300": 7259,
      "Ġ*": 7260,
      "ĠYour": 7261,
      "hern": 7262,
      "ĠÐ¼Ð°ÑĢÑĤÐ°": 7263,
      "ÑĢÐ´Ð°": 7264,
      "Ġpolice": 7265,
      "ĠÐºÑĢÐµÐ´Ð¸Ñ": 7266,
      "ĠÐºÑĢÐµÐ´Ð¸ÑĤ": 7267,
      "ĠÐ±Ð¾Ð»ÑĮÑĪÐ¾Ð": 7268,
      "ĠÐ»ÑİÐ±Ð¾Ð¼": 7269,
      "ĠÐ±Ð¾Ð»ÑĮÑĪÐ¾Ðµ": 7270,
      "cast": 7271,
      "ĠÐ¾Ð±ÑīÐµÑģÑĤÐ²Ð°": 7272,
      "ĠÐ¿ÑĢÐ¾Ð²ÐµÑģÑĤÐ¸": 7273,
      "¾Ð¿Ð°Ñģ": 7274,
      "Ð»Ð¾Ð¶ÐµÐ½Ð¸Ð¹": 7275,
      "Ġmeeting": 7276,
      "ÑģÑĥÐ": 7277,
      "ÑģÑĤÑĭÑħ": 7278,
      "Ġ197": 7279,
      "ĠÑĢÐ°Ð¹Ð¾": 7280,
      "Ġbott": 7281,
      "Ġleave": 7282,
      "ĠÑĩÑĥÑĤÑĮ": 7283,
      "ĠÐ°Ð»Ð»Ðµ": 7284,
      "Ġsignificant": 7285,
      "Ġcareer": 7286,
      "ÑģÑĤÐ¾ÑĢÐ¾": 7287,
      "ĠRed": 7288,
      "ĠÐ¢Ñĭ": 7289,
      "ĠÐ¾Ð³ÑĢÐ¾Ð¼": 7290,
      "aving": 7291,
      "ĠÐ¾ÑĦÐ¸ÑĨÐ¸Ð°": 7292,
      "ĠÐ»": 7293,
      "ĠÑĢÐµÑĨÐµÐ¿": 7294,
      "ĠÐ½ÐµÐ²Ðµ": 7295,
      "ĠÐļÐ¾Ð¼": 7296,
      "ĠÐ²ÑĭÐ¿ÑĥÑģÐºÐ°": 7297,
      "Ġrelationship": 7298,
      "ĠÐ´Ð°Ð½Ð½Ð¾Ð¼": 7299,
      "Ð´Ð°Ð»Ð¸": 7300,
      "ÑĢÐ±Ð¸": 7301,
      "Ð¾ÑħÑĢÐ°": 7302,
      "ĠWeb": 7303,
      "ĠÐ¿ÑĢÐµÐ´Ð»Ð°Ð³Ð°ÐµÑĤ": 7304,
      "ville": 7305,
      "ael": 7306,
      "ĠÐ¢ÐµÐ¿ÐµÑĢÑĮ": 7307,
      "¾ÑĢÐ¼Ð°": 7308,
      "Ġdecision": 7309,
      "Ġincrease": 7310,
      "ĠÑģÑĥÐ¼Ð¼Ñĥ": 7311,
      "ĠÐ±Ð°Ð½Ðº": 7312,
      "ĠÐ¶ÐµÐ½ÑīÐ¸Ð½Ð°": 7313,
      "ĠÐ¿ÑĥÑĤÐµÐ¼": 7314,
      "ĠÑģÑĤÐ°ÑĤÑĮÐµ": 7315,
      "ĠÐ´ÐµÐ²Ð¾": 7316,
      "Ġbooks": 7317,
      "ĠÐ¿ÑĢÐ¾Ð²Ð¾": 7318,
      "ĠÑĢÐ°Ð·ÑĢÑĥ": 7319,
      "ÑĢÐ°Ð¸Ð½Ðµ": 7320,
      "ĠBy": 7321,
      "icles": 7322,
      "ÑĩÐ¸Ð¹": 7323,
      "Ð¢Ð°ÐºÐ¶Ðµ": 7324,
      "ĠÐ¿Ð¸ÑīÐµ": 7325,
      "Ð¾ÑĤÑı": 7326,
      "Ġengine": 7327,
      "ĠÐ¿Ð°ÑĢÑĥ": 7328,
      "Ġreading": 7329,
      "Ð»ÐµÐ²": 7330,
      "ĠÐ¿Ð¾Ð½ÑıÑĤÑĮ": 7331,
      "ĠÑģÐ°Ð¼Ð°": 7332,
      "ĠÐ¸Ð¼Ð¼Ñĥ": 7333,
      "Ġsize": 7334,
      "ĠChar": 7335,
      "Ġwonder": 7336,
      "ĠÐĳÐ»Ð°Ð³Ð¾": 7337,
      "ming": 7338,
      "Ġwide": 7339,
      "ÑĩÐ°Ñı": 7340,
      "ÑģÐ»ÑĥÐ¶": 7341,
      "Ġthemselves": 7342,
      "eed": 7343,
      "ĠÐºÐ»Ð¸ÐµÐ½ÑĤÐ°": 7344,
      "Ð²Ð¾ÑĢÐµ": 7345,
      "ÑĢÐµÐ°": 7346,
      "ÑĦÐ¸ÑĨÐ¸ÑĢÐ¾Ð²Ð°": 7347,
      "Ð²Ð°Ð¹": 7348,
      "Ð¸Ð½ÑĤÐµÑĢÐµ": 7349,
      "fully": 7350,
      "ÑİÑīÐµÐ¼": 7351,
      "ĠÐ·Ð²Ð¾": 7352,
      "ĠCalif": 7353,
      "Ġregard": 7354,
      "ĠÑĩÐ°ÑģÐ°": 7355,
      "ĠÐ·Ð°ÑĢÐµÐ³Ð¸ÑģÑĤÑĢÐ¸": 7356,
      "ule": 7357,
      "Ð¾Ð³Ð¾": 7358,
      "Ġsecurity": 7359,
      "ĠÐ´ÐµÑĢÐ¶Ð°": 7360,
      "ĠArt": 7361,
      "ĠÐ¿ÑĢÐ¾ÑĤÐ¸Ð²Ð¾Ð¿Ð¾": 7362,
      "ÑĨÐµÐ½ÑĤ": 7363,
      "ĠÑĢÐ°Ð±Ð¾ÑĤÐ¾": 7364,
      "ÑĩÐµÐ½Ð½ÑĭÑħ": 7365,
      "mon": 7366,
      "ĠÐ¼Ð³": 7367,
      "ĠÑĢÐ°Ð·Ð¾": 7368,
      "03": 7369,
      "ester": 7370,
      "07": 7371,
      "ĠMus": 7372,
      "ĤÑĢÐ¸Ð": 7373,
      "ÑĤÑĢÐ¸Ð": 7374,
      "ĠÐ±Ð¾Ð»Ð¸": 7375,
      "ĠÐ¸ÑģÐ¿Ð¾Ð»ÑĮÐ·Ð¾Ð²Ð°Ð½Ð¸Ðµ": 7376,
      "ĠÑģÑĤÐ°ÑĤÑĥ": 7377,
      "itary": 7378,
      "ĠÐ²Ð¾Ð·Ð½Ð¸ÐºÐ½Ð¾Ð²Ð": 7379,
      "ĠÐ¾ÑģÐ½Ð¾Ð²Ð½Ð¾Ð¼": 7380,
      "Ġ2017": 7381,
      "Ð¿Ð¸ÑģÑĮ": 7382,
      "Ġpolicy": 7383,
      "ĠÐ¿ÑĥÑĤÐµÑĪÐµ": 7384,
      "ET": 7385,
      "ÐºÐ»Ð¸": 7386,
      "Ð²Ð°ÑİÑīÐ¸Ðµ": 7387,
      "ÑĢÐ°Ð·Ð´Ð¾": 7388,
      "ĠÐ²ÑģÐµÐ¼Ð¸": 7389,
      "Ð¿Ð¾Ð": 7390,
      "Ð´Ð¾ÑģÑĤÐ¾": 7391,
      "ĠÐ¾Ð¿Ð¾": 7392,
      "Ġens": 7393,
      "ession": 7394,
      "ĠÐ·Ð¸": 7395,
      "rect": 7396,
      "ĠÐĵÐµÑĢÐ¼Ð°": 7397,
      "arget": 7398,
      "ĠÐ¼Ð½ÐµÐ½Ð¸Ñİ": 7399,
      "ĠÐ·Ð½Ð°Ñİ": 7400,
      "ĠÐŁÑĢÐ°Ð²Ð¸": 7401,
      "ĠÐ²Ð´": 7402,
      "ĠReg": 7403,
      "?\"": 7404,
      "Ġmother": 7405,
      "Ġlonger": 7406,
      "ĠÑģÑĤÐ°Ð±Ð¸": 7407,
      "ĠÐ¿Ð°ÑģÐ¿Ð¾": 7408,
      "ĠWashington": 7409,
      "Ġstudent": 7410,
      "cember": 7411,
      "ÑĤÐµÐ»ÑĮÑģÑĤÐ²": 7412,
      "ĠÐ¿ÑıÑĤ": 7413,
      "ĠÐ¿ÑĢÐ¸Ð²Ð¾Ð´Ð¸ÑĤ": 7414,
      "Ð¿Ð¸Ñı": 7415,
      "ĠOur": 7416,
      "ĠÑĤÐ°Ð¹": 7417,
      "uesday": 7418,
      "ĠÑģÑĥÐ±ÑĬÐµÐº": 7419,
      "ĠÐ²Ð¿ÐµÑĩÐ°ÑĤ": 7420,
      "ursday": 7421,
      "Ġdest": 7422,
      "Ġcreated": 7423,
      "55": 7424,
      "ÑĢÐµÐ½ÑĮ": 7425,
      "ĠÑĥÑĤÑĢÐ°": 7426,
      "That": 7427,
      "ĠÐ¼Ð°ÑģÑģÐ¾": 7428,
      "ĠÑĢÐ°Ð´Ð¸": 7429,
      "ĠÐ´ÑĢÑĥÐ³Ð¸Ð¼": 7430,
      "Ð´Ð°Ð³Ð¾": 7431,
      "ĠÐ¿Ð¾Ð·Ð²Ð¾Ð»Ð¸ÑĤ": 7432,
      "Ġopportunity": 7433,
      "ĠÑĤÑĢÑĥÐ´Ð½Ð¾": 7434,
      "ĠÐ¡Ð»Ðµ": 7435,
      "ĠÐ¿ÑĢÐ¸Ð±Ð¾": 7436,
      "ĠÑģÐ¼Ð¾Ð¶ÐµÑĤ": 7437,
      "ĠHealth": 7438,
      "ĠÑĢÐµÐ°Ð»Ð¸Ð·Ð°ÑĨÐ¸Ð¸": 7439,
      "ĠDon": 7440,
      "ĠÐºÐ¾Ð¼Ð¿Ð°Ð½Ð¸Ð¹": 7441,
      "Ġsoftware": 7442,
      "Ġmat": 7443,
      "ĠÑįÐ»ÐµÐºÑĤÑĢÐ¸": 7444,
      "EL": 7445,
      "urg": 7446,
      "hel": 7447,
      "oring": 7448,
      "ÑģÐµÐ½ÑĮ": 7449,
      "ĠÑĥÐ¼Ð": 7450,
      "ĠÐºÐ»Ð¸ÐµÐ½ÑĤÐ¾Ð²": 7451,
      "ÐŁÑĢÐµÐ´": 7452,
      "Ġworked": 7453,
      "ĠÐ¾Ð±ÑĢÐ°ÑĤÐ¸ÑĤÑĮÑģÑı": 7454,
      "EC": 7455,
      "Ð¾Ð¿Ð°Ñģ": 7456,
      "Ġcampaign": 7457,
      "ĠÐ²ÐµÑīÐµÑģÑĤÐ²Ð°": 7458,
      "ĠÐ°Ð½ÑĤÐ¸Ð": 7459,
      "Ġgen": 7460,
      "Ġcoll": 7461,
      "Ġmoment": 7462,
      "38": 7463,
      "ÑĨÐµÐ¼": 7464,
      "kend": 7465,
      "Ġdefin": 7466,
      "Ġprint": 7467,
      "°Ð³ÑĢÐµ": 7468,
      "ĠÑĢÐ°Ð·Ð»Ð¸": 7469,
      "Ð²Ð½ÑĥÑİ": 7470,
      "ĠÐ¿Ð¾Ð¿ÑĥÐ»ÑıÑĢ": 7471,
      "Ġpaper": 7472,
      "ĠÐºÐ¾ÑĢÐ¿": 7473,
      "ĠÐºÐ¾Ð»Ð»Ðµ": 7474,
      "Ġfinancial": 7475,
      "ĠÐŃÑĤÐ¸": 7476,
      "Ġitself": 7477,
      "ĠBlack": 7478,
      "ĠSome": 7479,
      "ÑīÐ¸ÑħÑģÑı": 7480,
      "ĠÐºÑĢÐ¾Ð²": 7481,
      "Ġtable": 7482,
      "Ġlooks": 7483,
      "Ð½Ð¸ÑĨÐ¸": 7484,
      "ĠÐºÐ°Ð¼Ðµ": 7485,
      "rote": 7486,
      "ÑĢÐ¾Ð²ÐºÐ°": 7487,
      "Ġworth": 7488,
      "Ġlay": 7489,
      "ĠSunday": 7490,
      "Ġprivate": 7491,
      "Ð½Ð¸Ð»": 7492,
      "ÑģÑĦÐµ": 7493,
      "ÑģÑĤÐ¸Ñı": 7494,
      "ĠÐ²Ð´Ð¾": 7495,
      "ĠÐ¼Ð°ÑģÑĤÐµÑĢ": 7496,
      "ĠÐĺÐ½ÑĤÐµÑĢ": 7497,
      "Ð½ÑĢÐ°Ð²Ð¸": 7498,
      "ĠÑģÐµÑĢÑĮÐµ": 7499,
      "ault": 7500,
      "Ġhimself": 7501,
      "Ġfight": 7502,
      "Ġgave": 7503,
      "put": 7504,
      "ĠÐ¼Ð¾Ñģ": 7505,
      "ĠÐºÑĢÐ¾Ð²Ð¾": 7506,
      "Ð¶Ð´ÐµÐ½Ð¸Ð¹": 7507,
      "ĠÐļÐ¸ÑĤÐ°": 7508,
      "Ġcurrently": 7509,
      "Ġbox": 7510,
      "ĠÐ²Ð¾Ð»Ð¾Ñģ": 7511,
      "Ð½Ð´ÐµÐº": 7512,
      "ĠÐ½Ñĭ": 7513,
      "ĠÐ¿ÑĢÐ°Ð·Ð´Ð½Ð¸": 7514,
      "ĠÑĢÐ°Ð·Ð¼ÐµÑĢ": 7515,
      "ray": 7516,
      "ĠÐ´ÑĢÑĥÐ·ÑĮÑı": 7517,
      "Ġhop": 7518,
      "Ġhigher": 7519,
      "mail": 7520,
      "06": 7521,
      "ĠÐ¾Ð¿Ð°Ñģ": 7522,
      "ĠâĢ¦": 7523,
      "ĠÐ¾ÑģÐ¾Ð±ÐµÐ½Ð½Ð¾ÑģÑĤÐ¸": 7524,
      "ĠÐľÐ¸ÑħÐ°": 7525,
      "Ġexpress": 7526,
      "Ð²Ð°Ð½Ñĭ": 7527,
      "ĠÐ°Ð½Ð°Ð»Ð¸Ð·": 7528,
      "ĠÐ¿Ð¾ÑĢÑĤÐ°": 7529,
      "ĠÐ³ÑĢÑĥÐ¿Ð¿Ð°": 7530,
      "ÑĤÐ°ÐºÐ¸": 7531,
      "ĠÐ¼ÐµÐ»": 7532,
      "ĠÐ²Ð¸Ð´Ñĭ": 7533,
      "ĠJanuary": 7534,
      "ĠÐ´Ð¾Ð»Ð»Ð°ÑĢÐ¾Ð²": 7535,
      "iction": 7536,
      "Ġsystems": 7537,
      "ĠÐ¾ÑģÑĤÐ°ÐµÑĤÑģÑı": 7538,
      "ĠÐĺÑħ": 7539,
      "ĠÐ·Ð°ÑģÐµÐ´Ð°": 7540,
      "Ð¼ÐµÑĤÑĢÐ¾Ð²": 7541,
      "ÐºÑĥÐ¿": 7542,
      "Ð½Ð¸ÐºÐµ": 7543,
      "alt": 7544,
      "ÑĪÐ½Ð¸Ð¹": 7545,
      "Ġsqu": 7546,
      "ĠApple": 7547,
      "ĠÐ½Ð¾ÑıÐ±ÑĢÑı": 7548,
      "Ġrelease": 7549,
      "ĠÑģÐ¸ÑģÑĤÐµÐ¼Ðµ": 7550,
      "ĠÐ½ÐµÐ´ÐµÐ»Ñİ": 7551,
      "ÑĢÐ¶Ðµ": 7552,
      "ĠÑĪÑĤÑĢÐ°": 7553,
      "Ð³Ð½Ð¸": 7554,
      "ĠÐ½ÐµÐ¿ÑĢÐ¸": 7555,
      "ĠÐ¿Ð¾Ð¼Ð¾ÑĩÑĮ": 7556,
      "ÑĢÑĭÐ¹": 7557,
      "ittee": 7558,
      "ĠÑģÐ¸Ð»": 7559,
      "ĠÐ±ÑĥÐº": 7560,
      "ĠÐ¾ÑģÐ½Ð¾Ð²Ð½ÑĭÑħ": 7561,
      "lier": 7562,
      "ĠÑĢÐµÑĩÑĮ": 7563,
      "ĠÐ¸ÑİÐ»Ñı": 7564,
      "ĠÑĥÑģÑĤÑĢÐ°": 7565,
      "ednes": 7566,
      "haps": 7567,
      "ĠPat": 7568,
      "ÑĢÐ¾Ð¼Ñĥ": 7569,
      "Ġround": 7570,
      "ĠÐ¼Ð¾Ð´ÐµÐ»ÑĮ": 7571,
      "ĠÑĥÐ´Ð¾Ð²Ð»ÐµÑĤ": 7572,
      "ING": 7573,
      "ÐłÐ¾Ñģ": 7574,
      "Ġpopular": 7575,
      "ĠÑģÐ¾Ð·Ð½Ð°": 7576,
      "ĠBrit": 7577,
      "Ð´ÐµÐ»Ð¸Ñı": 7578,
      "ĠÑģÐ¾Ð³Ð»Ð°ÑģÐ½Ð¾": 7579,
      "based": 7580,
      "Ð¿ÑĢÐ¾Ð¸Ð·": 7581,
      "ening": 7582,
      "Ġmodel": 7583,
      "Ð¶Ð´ÑĭÐ¹": 7584,
      "09": 7585,
      "Ġetc": 7586,
      "astic": 7587,
      "ĠÐķÑģÑĤÑĮ": 7588,
      "ĠÐ·Ð°ÑĢÐ°Ð±Ð¾": 7589,
      "Ġsaying": 7590,
      "ĠÐµÐ²ÑĢÐ¾Ð¿ÐµÐ¹": 7591,
      "Ð±Ð¸Ð¹": 7592,
      "ĠÐ²Ð¾Ð·Ð½Ð¸ÐºÐ°ÐµÑĤ": 7593,
      "ĠÐ¿ÐµÑĢÐ²Ð¾": 7594,
      "Ġhands": 7595,
      "key": 7596,
      "Ġappe": 7597,
      "08": 7598,
      "Ð»Ð¾Ð½": 7599,
      "Ġattempt": 7600,
      "atory": 7601,
      "Ð¿Ð°Ð": 7602,
      "Ġsurpr": 7603,
      "Ġsummer": 7604,
      "ĠÑĥÑģÐ»Ð¾Ð²Ð¸Ð¹": 7605,
      "Ð½Ð¸ÑĨÐ¸Ð¿Ð°": 7606,
      "ÑĤÑĮÐ": 7607,
      "Ġexam": 7608,
      "ĠÐ´ÑĢ": 7609,
      "ĠDem": 7610,
      "ĠÐ¾Ð±Ð½Ð¾": 7611,
      "Ð´ÑĨÐ°": 7612,
      "ÑĤÐµÐ¼Ð°": 7613,
      "sp": 7614,
      "ĠÐ¿ÐµÑĩÐ°": 7615,
      "Ġri": 7616,
      "Ġnatural": 7617,
      "34": 7618,
      "ĠÐ´ÑĢÑĥÐ³Ñĥ": 7619,
      "Ġneg": 7620,
      "uel": 7621,
      "Ġboy": 7622,
      "ÑĢÐ¾Ð´Ðµ": 7623,
      "Ġrate": 7624,
      "Ð²Ð»ÐµÐ½Ð¾": 7625,
      "ÑħÐ»Ð°": 7626,
      "unt": 7627,
      "Ð»Ð¾Ð³Ð¸ÑĩÐµÑģÐºÐ¸Ñħ": 7628,
      "ĠÐ¸Ð¼Ð¸": 7629,
      "ruary": 7630,
      "ĠÐ¢ÐµÐ¼": 7631,
      "itution": 7632,
      "Ġdeg": 7633,
      "ÑĤÐ¸ÐºÑĥ": 7634,
      "Ð³ÑĢÐ¾": 7635,
      "ĠÐ¿Ð¾Ð»ÑĥÑĩÐ¸Ð»": 7636,
      "Ġconv": 7637,
      "Ġchance": 7638,
      "Ġpurp": 7639,
      "ĠÐºÐ¾Ð½ÑĨÐ°": 7640,
      "rought": 7641,
      "Ð»Ð¸Ð½Ñĭ": 7642,
      "½ÑĤÐ¸": 7643,
      "ÑģÑĥÐ»ÑĮ": 7644,
      "All": 7645,
      "ĠÐĲÐ»ÐµÐºÑģÐ°Ð½Ð´ÑĢ": 7646,
      "Ð²Ð¸Ð½Ñĥ": 7647,
      "Ġtal": 7648,
      "ĠÐ¡ÐµÐ¹ÑĩÐ°Ñģ": 7649,
      "ÑĪÐµÐ´": 7650,
      "ĠÐ¿ÑĢÐ¾Ð³ÑĢÐ°Ð¼Ð¼": 7651,
      "Ð½ÑģÐ¸": 7652,
      "ĠÐ´ÐµÐ¹ÑģÑĤÐ²Ð¸Ðµ": 7653,
      "ĠInternational": 7654,
      "fl": 7655,
      "ĠÐ¿ÑĢÐ¾Ð´ÑĥÐºÑĤÐ¾Ð²": 7656,
      "ĠÐ·Ð°Ð±Ð¾Ð»ÐµÐ²Ð°Ð½Ð¸Ð¹": 7657,
      "ĠStreet": 7658,
      "ĠÐ¿Ð¾Ð´Ð¿Ð¸ÑģÐ°": 7659,
      "ĠÑģÐ¾ÑħÑĢÐ°Ð½Ñı": 7660,
      "ĠÐ¾ÑĤÐ¼ÐµÑĤÐ¸Ð»": 7661,
      "ĠÐ³Ð¾Ð²Ð¾ÑĢÑıÑ": 7662,
      "ĠÐ³Ð¾Ð²Ð¾ÑĢÑıÑĤ": 7663,
      "Ð¸Ð½Ð¸": 7664,
      "Ð°Ð³ÑĢÐµ": 7665,
      "Ġobs": 7666,
      "ÐºÑĢÑĥ": 7667,
      "ÑĤÐµÐ»ÑĮÑģÑĤÐ²Ð¾Ð¼": 7668,
      "Ð´Ñĳ": 7669,
      "ĠÐ¾ÑĢÐ³Ð°Ð½Ð¸Ð·Ð¼": 7670,
      "¸ÑĤÑĮ": 7671,
      "Ġ2004": 7672,
      "ĠÐºÐ¼": 7673,
      "Ġgoes": 7674,
      "Ġbo": 7675,
      "Ġteac": 7676,
      "PS": 7677,
      "izing": 7678,
      "ĠÐ»ÑİÐ´ÑıÐ¼": 7679,
      "ĠÐ¿ÑĢÐµÐ´Ð¼Ðµ": 7680,
      "Ð¶Ð½ÑĥÑİ": 7681,
      "ÑĪÐºÐ¾": 7682,
      "ĠÐ½Ð¸Ð¶": 7683,
      "Ġbecame": 7684,
      "ÑĩÐ½Ð¸ÐºÐ°": 7685,
      "ĠÐ»ÑİÐ±Ð¾Ð³Ð¾": 7686,
      "ĠÑĥÑĩÐ°ÑģÑĤÐ½Ð¸ÐºÐ¾Ð²": 7687,
      "Ġcand": 7688,
      "ĠÐºÐ°Ð¶ÐµÑĤÑģÑı": 7689,
      "Ġfast": 7690,
      "Ð³Ð»Ð¸": 7691,
      "Ġpers": 7692,
      "Ð½ÐµÐ²": 7693,
      "cing": 7694,
      "Ġprim": 7695,
      "ĠÑģÑĤÐ¾Ð¸Ð¼Ð¾ÑģÑĤÐ¸": 7696,
      "02": 7697,
      "ÐļÑĢÐ¾Ð¼Ðµ": 7698,
      "ĠÐ¸Ð½Ð´Ð¸Ð²Ð¸Ð´ÑĥÐ°": 7699,
      "ĠSw": 7700,
      "rel": 7701,
      "Ð¸Ð´": 7702,
      "Ġincluded": 7703,
      "Ð¼Ð°ÑĤÐ¾": 7704,
      "ĠÐłÐ¾ÑģÑģÐ¸Ñı": 7705,
      "½ÑģÐºÐ¾Ð³Ð¾": 7706,
      "ĠÐ¸Ð¼Ñı": 7707,
      "Ġplayer": 7708,
      "ĠÐ¿ÑĢÐ¾ÑĤÑıÐ¶ÐµÐ½Ð¸Ð¸": 7709,
      "ÐĴÐĲ": 7710,
      "erman": 7711,
      "ĠSch": 7712,
      "ĠÐ°Ð¿ÑĢÐµÐ»Ñı": 7713,
      "ĠÑģÐºÐ¾ÑĢÐµÐµ": 7714,
      "ĠÐ¼ÐµÑĢÐ¾Ð¿ÑĢÐ¸ÑıÑĤÐ¸Ñı": 7715,
      "ĠÑĢÐµÐºÐ¾Ð¼ÐµÐ½Ð´Ð°": 7716,
      "Ġwoman": 7717,
      "rown": 7718,
      "Ġreported": 7719,
      "Ġdate": 7720,
[...]
